{
  "version": "1.0",
  "truncation": null,
  "padding": null,
  "added_tokens": [
    {
      "id": 0,
      "content": "<pad>",
      "single_word": false,
      "lstrip": false,
      "rstrip": false,
      "normalized": false,
      "special": true
    },
    {
      "id": 1,
      "content": "<bos>",
      "single_word": false,
      "lstrip": false,
      "rstrip": false,
      "normalized": false,
      "special": true
    },
    {
      "id": 2,
      "content": "<eos>",
      "single_word": false,
      "lstrip": false,
      "rstrip": false,
      "normalized": false,
      "special": true
    },
    {
      "id": 3,
      "content": "<unk>",
      "single_word": false,
      "lstrip": false,
      "rstrip": false,
      "normalized": false,
      "special": true
    },
    {
      "id": 4,
      "content": "<sep>",
      "single_word": false,
      "lstrip": false,
      "rstrip": false,
      "normalized": false,
      "special": true
    },
    {
      "id": 5,
      "content": "<emotion_jealous>",
      "single_word": false,
      "lstrip": false,
      "rstrip": false,
      "normalized": false,
      "special": true
    },
    {
      "id": 6,
      "content": "<emotion_surprised>",
      "single_word": false,
      "lstrip": false,
      "rstrip": false,
      "normalized": false,
      "special": true
    },
    {
      "id": 7,
      "content": "<emotion_furious>",
      "single_word": false,
      "lstrip": false,
      "rstrip": false,
      "normalized": false,
      "special": true
    },
    {
      "id": 8,
      "content": "<emotion_angry>",
      "single_word": false,
      "lstrip": false,
      "rstrip": false,
      "normalized": false,
      "special": true
    },
    {
      "id": 9,
      "content": "<emotion_disappointed>",
      "single_word": false,
      "lstrip": false,
      "rstrip": false,
      "normalized": false,
      "special": true
    },
    {
      "id": 10,
      "content": "<emotion_impressed>",
      "single_word": false,
      "lstrip": false,
      "rstrip": false,
      "normalized": false,
      "special": true
    },
    {
      "id": 11,
      "content": "<emotion_ashamed>",
      "single_word": false,
      "lstrip": false,
      "rstrip": false,
      "normalized": false,
      "special": true
    },
    {
      "id": 12,
      "content": "<emotion_disgusted>",
      "single_word": false,
      "lstrip": false,
      "rstrip": false,
      "normalized": false,
      "special": true
    },
    {
      "id": 13,
      "content": "<emotion_grateful>",
      "single_word": false,
      "lstrip": false,
      "rstrip": false,
      "normalized": false,
      "special": true
    },
    {
      "id": 14,
      "content": "<emotion_hopeful>",
      "single_word": false,
      "lstrip": false,
      "rstrip": false,
      "normalized": false,
      "special": true
    },
    {
      "id": 15,
      "content": "<emotion_devastated>",
      "single_word": false,
      "lstrip": false,
      "rstrip": false,
      "normalized": false,
      "special": true
    },
    {
      "id": 16,
      "content": "<emotion_faithful>",
      "single_word": false,
      "lstrip": false,
      "rstrip": false,
      "normalized": false,
      "special": true
    },
    {
      "id": 17,
      "content": "<emotion_sad>",
      "single_word": false,
      "lstrip": false,
      "rstrip": false,
      "normalized": false,
      "special": true
    },
    {
      "id": 18,
      "content": "<emotion_proud>",
      "single_word": false,
      "lstrip": false,
      "rstrip": false,
      "normalized": false,
      "special": true
    },
    {
      "id": 19,
      "content": "<emotion_lonely>",
      "single_word": false,
      "lstrip": false,
      "rstrip": false,
      "normalized": false,
      "special": true
    },
    {
      "id": 20,
      "content": "<emotion_confident>",
      "single_word": false,
      "lstrip": false,
      "rstrip": false,
      "normalized": false,
      "special": true
    },
    {
      "id": 21,
      "content": "<emotion_afraid>",
      "single_word": false,
      "lstrip": false,
      "rstrip": false,
      "normalized": false,
      "special": true
    },
    {
      "id": 22,
      "content": "<emotion_annoyed>",
      "single_word": false,
      "lstrip": false,
      "rstrip": false,
      "normalized": false,
      "special": true
    },
    {
      "id": 23,
      "content": "<emotion_terrified>",
      "single_word": false,
      "lstrip": false,
      "rstrip": false,
      "normalized": false,
      "special": true
    },
    {
      "id": 24,
      "content": "<emotion_prepared>",
      "single_word": false,
      "lstrip": false,
      "rstrip": false,
      "normalized": false,
      "special": true
    },
    {
      "id": 25,
      "content": "<emotion_anxious>",
      "single_word": false,
      "lstrip": false,
      "rstrip": false,
      "normalized": false,
      "special": true
    },
    {
      "id": 26,
      "content": "<emotion_excited>",
      "single_word": false,
      "lstrip": false,
      "rstrip": false,
      "normalized": false,
      "special": true
    },
    {
      "id": 27,
      "content": "<emotion_sentimental>",
      "single_word": false,
      "lstrip": false,
      "rstrip": false,
      "normalized": false,
      "special": true
    },
    {
      "id": 28,
      "content": "<emotion_guilty>",
      "single_word": false,
      "lstrip": false,
      "rstrip": false,
      "normalized": false,
      "special": true
    },
    {
      "id": 29,
      "content": "<emotion_embarrassed>",
      "single_word": false,
      "lstrip": false,
      "rstrip": false,
      "normalized": false,
      "special": true
    },
    {
      "id": 30,
      "content": "<emotion_joyful>",
      "single_word": false,
      "lstrip": false,
      "rstrip": false,
      "normalized": false,
      "special": true
    },
    {
      "id": 31,
      "content": "<emotion_nostalgic>",
      "single_word": false,
      "lstrip": false,
      "rstrip": false,
      "normalized": false,
      "special": true
    },
    {
      "id": 32,
      "content": "<emotion_content>",
      "single_word": false,
      "lstrip": false,
      "rstrip": false,
      "normalized": false,
      "special": true
    },
    {
      "id": 33,
      "content": "<emotion_trusting>",
      "single_word": false,
      "lstrip": false,
      "rstrip": false,
      "normalized": false,
      "special": true
    },
    {
      "id": 34,
      "content": "<emotion_caring>",
      "single_word": false,
      "lstrip": false,
      "rstrip": false,
      "normalized": false,
      "special": true
    },
    {
      "id": 35,
      "content": "<emotion_anticipating>",
      "single_word": false,
      "lstrip": false,
      "rstrip": false,
      "normalized": false,
      "special": true
    },
    {
      "id": 36,
      "content": "<emotion_apprehensive>",
      "single_word": false,
      "lstrip": false,
      "rstrip": false,
      "normalized": false,
      "special": true
    },
    {
      "id": 37,
      "content": "<emotion_t think i wold like super heroes>",
      "single_word": false,
      "lstrip": false,
      "rstrip": false,
      "normalized": false,
      "special": true
    },
    {
      "id": 38,
      "content": "<emotion_t believe i like the show power so much. i was never really into shows like that>",
      "single_word": false,
      "lstrip": false,
      "rstrip": false,
      "normalized": false,
      "special": true
    },
    {
      "id": 39,
      "content": "<emotion_t believe my daughter taught herself how to play the ukelele. i was amazed>",
      "single_word": false,
      "lstrip": false,
      "rstrip": false,
      "normalized": false,
      "special": true
    },
    {
      "id": 40,
      "content": "<emotion_but what i didn't know was that he was working in the next room with the door open.  he approached and asked what i had been saying.  i knew i was caught.  i was so disgusted with myself.>",
      "single_word": false,
      "lstrip": false,
      "rstrip": false,
      "normalized": false,
      "special": true
    },
    {
      "id": 41,
      "content": "<emotion_t even like scary things>",
      "single_word": false,
      "lstrip": false,
      "rstrip": false,
      "normalized": false,
      "special": true
    },
    {
      "id": 42,
      "content": "<emotion_we were in a different country>",
      "single_word": false,
      "lstrip": false,
      "rstrip": false,
      "normalized": false,
      "special": true
    },
    {
      "id": 43,
      "content": "<emotion_i really killed it!>",
      "single_word": false,
      "lstrip": false,
      "rstrip": false,
      "normalized": false,
      "special": true
    },
    {
      "id": 44,
      "content": "<emotion_a boy.  i hear all these different labor stories that aren't exactly reassuring!>",
      "single_word": false,
      "lstrip": false,
      "rstrip": false,
      "normalized": false,
      "special": true
    },
    {
      "id": 45,
      "content": "<emotion_(>",
      "single_word": false,
      "lstrip": false,
      "rstrip": false,
      "normalized": false,
      "special": true
    },
    {
      "id": 46,
      "content": "<emotion_time to jump on the motorcycle and go cruising!>",
      "single_word": false,
      "lstrip": false,
      "rstrip": false,
      "normalized": false,
      "special": true
    },
    {
      "id": 47,
      "content": "<emotion_m so mad with my brother. he stole from me and didn't think i would notice.>",
      "single_word": false,
      "lstrip": false,
      "rstrip": false,
      "normalized": false,
      "special": true
    }
  ],
  "normalizer": null,
  "pre_tokenizer": {
    "type": "Whitespace"
  },
  "post_processor": null,
  "decoder": null,
  "model": {
    "type": "BPE",
    "dropout": null,
    "unk_token": null,
    "continuing_subword_prefix": null,
    "end_of_word_suffix": null,
    "fuse_unk": false,
    "byte_fallback": false,
    "ignore_merges": false,
    "vocab": {
      "<pad>": 0,
      "<bos>": 1,
      "<eos>": 2,
      "<unk>": 3,
      "<sep>": 4,
      "<emotion_jealous>": 5,
      "<emotion_surprised>": 6,
      "<emotion_furious>": 7,
      "<emotion_angry>": 8,
      "<emotion_disappointed>": 9,
      "<emotion_impressed>": 10,
      "<emotion_ashamed>": 11,
      "<emotion_disgusted>": 12,
      "<emotion_grateful>": 13,
      "<emotion_hopeful>": 14,
      "<emotion_devastated>": 15,
      "<emotion_faithful>": 16,
      "<emotion_sad>": 17,
      "<emotion_proud>": 18,
      "<emotion_lonely>": 19,
      "<emotion_confident>": 20,
      "<emotion_afraid>": 21,
      "<emotion_annoyed>": 22,
      "<emotion_terrified>": 23,
      "<emotion_prepared>": 24,
      "<emotion_anxious>": 25,
      "<emotion_excited>": 26,
      "<emotion_sentimental>": 27,
      "<emotion_guilty>": 28,
      "<emotion_embarrassed>": 29,
      "<emotion_joyful>": 30,
      "<emotion_nostalgic>": 31,
      "<emotion_content>": 32,
      "<emotion_trusting>": 33,
      "<emotion_caring>": 34,
      "<emotion_anticipating>": 35,
      "<emotion_apprehensive>": 36,
      "<emotion_t think i wold like super heroes>": 37,
      "<emotion_t believe i like the show power so much. i was never really into shows like that>": 38,
      "<emotion_t believe my daughter taught herself how to play the ukelele. i was amazed>": 39,
      "<emotion_but what i didn't know was that he was working in the next room with the door open.  he approached and asked what i had been saying.  i knew i was caught.  i was so disgusted with myself.>": 40,
      "<emotion_t even like scary things>": 41,
      "<emotion_we were in a different country>": 42,
      "<emotion_i really killed it!>": 43,
      "<emotion_a boy.  i hear all these different labor stories that aren't exactly reassuring!>": 44,
      "<emotion_(>": 45,
      "<emotion_time to jump on the motorcycle and go cruising!>": 46,
      "<emotion_m so mad with my brother. he stole from me and didn't think i would notice.>": 47,
      "0": 48,
      "1": 49,
      "2": 50,
      "3": 51,
      "4": 52,
      "5": 53,
      "6": 54,
      "7": 55,
      "8": 56,
      "9": 57,
      "_": 58,
      "a": 59,
      "b": 60,
      "c": 61,
      "d": 62,
      "e": 63,
      "f": 64,
      "g": 65,
      "h": 66,
      "i": 67,
      "j": 68,
      "k": 69,
      "l": 70,
      "m": 71,
      "n": 72,
      "o": 73,
      "p": 74,
      "q": 75,
      "r": 76,
      "s": 77,
      "t": 78,
      "u": 79,
      "v": 80,
      "w": 81,
      "x": 82,
      "y": 83,
      "z": 84,
      "th": 85,
      "in": 86,
      "er": 87,
      "an": 88,
      "ou": 89,
      "to": 90,
      "at": 91,
      "re": 92,
      "en": 93,
      "ing": 94,
      "it": 95,
      "on": 96,
      "the": 97,
      "as": 98,
      "me": 99,
      "or": 100,
      "my": 101,
      "ed": 102,
      "ll": 103,
      "st": 104,
      "and": 105,
      "ha": 106,
      "is": 107,
      "was": 108,
      "ar": 109,
      "so": 110,
      "be": 111,
      "ve": 112,
      "ay": 113,
      "that": 114,
      "you": 115,
      "he": 116,
      "go": 117,
      "le": 118,
      "wh": 119,
      "ow": 120,
      "of": 121,
      "id": 122,
      "se": 123,
      "for": 124,
      "all": 125,
      "ri": 126,
      "gh": 127,
      "al": 128,
      "ch": 129,
      "we": 130,
      "am": 131,
      "ke": 132,
      "wi": 133,
      "ad": 134,
      "ver": 135,
      "ld": 136,
      "im": 137,
      "out": 138,
      "li": 139,
      "ne": 140,
      "fe": 141,
      "ro": 142,
      "ge": 143,
      "ti": 144,
      "lo": 145,
      "do": 146,
      "no": 147,
      "one": 148,
      "have": 149,
      "ce": 150,
      "bu": 151,
      "ther": 152,
      "end": 153,
      "ent": 154,
      "ye": 155,
      "are": 156,
      "ly": 157,
      "day": 158,
      "ght": 159,
      "ck": 160,
      "pe": 161,
      "ho": 162,
      "ab": 163,
      "ally": 164,
      "su": 165,
      "some": 166,
      "mo": 167,
      "nt": 168,
      "ust": 169,
      "co": 170,
      "when": 171,
      "with": 172,
      "pp": 173,
      "ir": 174,
      "get": 175,
      "did": 176,
      "wor": 177,
      "od": 178,
      "but": 179,
      "es": 180,
      "ant": 181,
      "ould": 182,
      "ter": 183,
      "had": 184,
      "fri": 185,
      "time": 186,
      "now": 187,
      "un": 188,
      "friend": 189,
      "very": 190,
      "just": 191,
      "they": 192,
      "up": 193,
      "thing": 194,
      "she": 195,
      "really": 196,
      "not": 197,
      "got": 198,
      "el": 199,
      "way": 200,
      "her": 201,
      "work": 202,
      "ake": 203,
      "what": 204,
      "ok": 205,
      "about": 206,
      "good": 207,
      "ast": 208,
      "au": 209,
      "tr": 210,
      "like": 211,
      "its": 212,
      "this": 213,
      "feel": 214,
      "ont": 215,
      "ni": 216,
      "wee": 217,
      "ex": 218,
      "ate": 219,
      "art": 220,
      "oun": 221,
      "new": 222,
      "ac": 223,
      "happ": 224,
      "ound": 225,
      "ion": 226,
      "sh": 227,
      "ere": 228,
      "can": 229,
      "week": 230,
      "been": 231,
      "any": 232,
      "going": 233,
      "thats": 234,
      "pl": 235,
      "ss": 236,
      "te": 237,
      "de": 238,
      "ack": 239,
      "gr": 240,
      "ink": 241,
      "sa": 242,
      "car": 243,
      "fu": 244,
      "ol": 245,
      "will": 246,
      "year": 247,
      "pre": 248,
      "ind": 249,
      "ive": 250,
      "know": 251,
      "us": 252,
      "him": 253,
      "ough": 254,
      "rom": 255,
      "other": 256,
      "gre": 257,
      "ill": 258,
      "op": 259,
      "ur": 260,
      "how": 261,
      "jo": 262,
      "think": 263,
      "would": 264,
      "lt": 265,
      "oh": 266,
      "ting": 267,
      "them": 268,
      "see": 269,
      "if": 270,
      "from": 271,
      "fo": 272,
      "well": 273,
      "last": 274,
      "your": 275,
      "dont": 276,
      "com": 277,
      "ic": 278,
      "hope": 279,
      "too": 280,
      "there": 281,
      "were": 282,
      "per": 283,
      "af": 284,
      "ation": 285,
      "back": 286,
      "ving": 287,
      "every": 288,
      "want": 289,
      "bo": 290,
      "ga": 291,
      "cho": 292,
      "didnt": 293,
      "po": 294,
      "make": 295,
      "ous": 296,
      "went": 297,
      "har": 298,
      "happy": 299,
      "our": 300,
      "king": 301,
      "mad": 302,
      "great": 303,
      "cant": 304,
      "ong": 305,
      "sure": 306,
      "ry": 307,
      "bad": 308,
      "ra": 309,
      "could": 310,
      "dog": 311,
      "home": 312,
      "job": 313,
      "cau": 314,
      "wa": 315,
      "ster": 316,
      "than": 317,
      "lot": 318,
      "mu": 319,
      "ie": 320,
      "sto": 321,
      "ard": 322,
      "ass": 323,
      "old": 324,
      "care": 325,
      "gu": 326,
      "ty": 327,
      "kid": 328,
      "con": 329,
      "fa": 330,
      "yea": 331,
      "scho": 332,
      "school": 333,
      "off": 334,
      "fin": 335,
      "his": 336,
      "ways": 337,
      "over": 338,
      "felt": 339,
      "wait": 340,
      "der": 341,
      "ought": 342,
      "sp": 343,
      "own": 344,
      "pro": 345,
      "ide": 346,
      "night": 347,
      "pu": 348,
      "today": 349,
      "bet": 350,
      "peop": 351,
      "people": 352,
      "always": 353,
      "ful": 354,
      "ite": 355,
      "much": 356,
      "lf": 357,
      "look": 358,
      "friends": 359,
      "ev": 360,
      "bro": 361,
      "ep": 362,
      "cause": 363,
      "mor": 364,
      "fir": 365,
      "hard": 366,
      "pr": 367,
      "son": 368,
      "first": 369,
      "ily": 370,
      "si": 371,
      "by": 372,
      "ble": 373,
      "di": 374,
      "yes": 375,
      "able": 376,
      "ouse": 377,
      "someone": 378,
      "never": 379,
      "nice": 380,
      "ish": 381,
      "more": 382,
      "has": 383,
      "because": 384,
      "gir": 385,
      "ner": 386,
      "self": 387,
      "read": 388,
      "lit": 389,
      "girl": 390,
      "start": 391,
      "rec": 392,
      "years": 393,
      "after": 394,
      "who": 395,
      "house": 396,
      "yeah": 397,
      "ved": 398,
      "ma": 399,
      "love": 400,
      "whi": 401,
      "atch": 402,
      "qu": 403,
      "igh": 404,
      "mb": 405,
      "fam": 406,
      "part": 407,
      "ment": 408,
      "right": 409,
      "man": 410,
      "tle": 411,
      "tri": 412,
      "happen": 413,
      "hel": 414,
      "fi": 415,
      "take": 416,
      "life": 417,
      "long": 418,
      "family": 419,
      "made": 420,
      "even": 421,
      "mon": 422,
      "nex": 423,
      "ig": 424,
      "stu": 425,
      "pret": 426,
      "pec": 427,
      "need": 428,
      "should": 429,
      "lu": 430,
      "try": 431,
      "help": 432,
      "kids": 433,
      "che": 434,
      "fun": 435,
      "ine": 436,
      "pretty": 437,
      "into": 438,
      "best": 439,
      "times": 440,
      "ready": 441,
      "still": 442,
      "ame": 443,
      "cit": 444,
      "little": 445,
      "sor": 446,
      "sound": 447,
      "ning": 448,
      "ta": 449,
      "saw": 450,
      "ted": 451,
      "fore": 452,
      "away": 453,
      "app": 454,
      "things": 455,
      "thank": 456,
      "next": 457,
      "though": 458,
      "found": 459,
      "ies": 460,
      "iss": 461,
      "pare": 462,
      "getting": 463,
      "tu": 464,
      "ru": 465,
      "sit": 466,
      "ked": 467,
      "tion": 468,
      "om": 469,
      "come": 470,
      "oney": 471,
      "bor": 472,
      "thr": 473,
      "weekend": 474,
      "down": 475,
      "ag": 476,
      "watch": 477,
      "play": 478,
      "something": 479,
      "ts": 480,
      "hear": 481,
      "ers": 482,
      "money": 483,
      "while": 484,
      "better": 485,
      "then": 486,
      "ated": 487,
      "aught": 488,
      "sho": 489,
      "il": 490,
      "la": 491,
      "sorry": 492,
      "most": 493,
      "inter": 494,
      "chi": 495,
      "scare": 496,
      "days": 497,
      "ace": 498,
      "br": 499,
      "kind": 500,
      "ach": 501,
      "does": 502,
      "where": 503,
      "miss": 504,
      "wo": 505,
      "feeling": 506,
      "vie": 507,
      "sounds": 508,
      "before": 509,
      "month": 510,
      "tur": 511,
      "daught": 512,
      "being": 513,
      "ently": 514,
      "yester": 515,
      "tic": 516,
      "yesterday": 517,
      "excit": 518,
      "red": 519,
      "wow": 520,
      "sur": 521,
      "brother": 522,
      "ating": 523,
      "gl": 524,
      "took": 525,
      "myself": 526,
      "why": 527,
      "cer": 528,
      "bab": 529,
      "pass": 530,
      "ple": 531,
      "ten": 532,
      "lie": 533,
      "mi": 534,
      "find": 535,
      "big": 536,
      "scared": 537,
      "pa": 538,
      "may": 539,
      "tal": 540,
      "recently": 541,
      "sin": 542,
      "row": 543,
      "fr": 544,
      "cou": 545,
      "pay": 546,
      "set": 547,
      "dri": 548,
      "wife": 549,
      "mp": 550,
      "wal": 551,
      "mber": 552,
      "ward": 553,
      "came": 554,
      "iz": 555,
      "looking": 556,
      "won": 557,
      "their": 558,
      "child": 559,
      "band": 560,
      "around": 561,
      "ise": 562,
      "through": 563,
      "let": 564,
      "must": 565,
      "under": 566,
      "wanted": 567,
      "ever": 568,
      "keep": 569,
      "thought": 570,
      "sad": 571,
      "age": 572,
      "daughter": 573,
      "bir": 574,
      "awe": 575,
      "ft": 576,
      "mom": 577,
      "cu": 578,
      "ess": 579,
      "ned": 580,
      "only": 581,
      "having": 582,
      "dis": 583,
      "put": 584,
      "belie": 585,
      "everything": 586,
      "game": 587,
      "few": 588,
      "cl": 589,
      "full": 590,
      "gain": 591,
      "girlfriend": 592,
      "lle": 593,
      "cle": 594,
      "awesome": 595,
      "ose": 596,
      "believe": 597,
      "wish": 598,
      "ago": 599,
      "clo": 600,
      "hus": 601,
      "plan": 602,
      "reme": 603,
      "test": 604,
      "cked": 605,
      "used": 606,
      "ance": 607,
      "birth": 608,
      "luck": 609,
      "side": 610,
      "parent": 611,
      "late": 612,
      "ree": 613,
      "ried": 614,
      "place": 615,
      "lol": 616,
      "husband": 617,
      "tru": 618,
      "neigh": 619,
      "ort": 620,
      "lost": 621,
      "colle": 622,
      "maybe": 623,
      "anything": 624,
      "coming": 625,
      "ious": 626,
      "again": 627,
      "once": 628,
      "left": 629,
      "room": 630,
      "doing": 631,
      "cat": 632,
      "live": 633,
      "call": 634,
      "excited": 635,
      "stand": 636,
      "food": 637,
      "mer": 638,
      "par": 639,
      "sometimes": 640,
      "neighbor": 641,
      "grad": 642,
      "told": 643,
      "birthday": 644,
      "rible": 645,
      "show": 646,
      "wasnt": 647,
      "cid": 648,
      "vor": 649,
      "makes": 650,
      "since": 651,
      "guy": 652,
      "med": 653,
      "died": 654,
      "glad": 655,
      "ang": 656,
      "ip": 657,
      "ms": 658,
      "alone": 659,
      "pped": 660,
      "many": 661,
      "tell": 662,
      "nerv": 663,
      "high": 664,
      "ice": 665,
      "mar": 666,
      "bought": 667,
      "say": 668,
      "ama": 669,
      "parents": 670,
      "remember": 671,
      "nervous": 672,
      "boy": 673,
      "tor": 674,
      "bit": 675,
      "college": 676,
      "tomor": 677,
      "ph": 678,
      "done": 679,
      "ash": 680,
      "cre": 681,
      "person": 682,
      "tomorrow": 683,
      "such": 684,
      "grand": 685,
      "those": 686,
      "lea": 687,
      "ying": 688,
      "vac": 689,
      "upset": 690,
      "tra": 691,
      "favor": 692,
      "trying": 693,
      "hate": 694,
      "ste": 695,
      "mother": 696,
      "oud": 697,
      "couldnt": 698,
      "ick": 699,
      "00": 700,
      "same": 701,
      "happened": 702,
      "sister": 703,
      "stay": 704,
      "supp": 705,
      "ence": 706,
      "real": 707,
      "soon": 708,
      "trip": 709,
      "ak": 710,
      "sed": 711,
      "res": 712,
      "est": 713,
      "super": 714,
      "surpr": 715,
      "amaz": 716,
      "je": 717,
      "ork": 718,
      "hu": 719,
      "finally": 720,
      "another": 721,
      "cool": 722,
      "view": 723,
      "favorite": 724,
      "cow": 725,
      "passed": 726,
      "run": 727,
      "said": 728,
      "vacation": 729,
      "party": 730,
      "fully": 731,
      "ater": 732,
      "two": 733,
      "vis": 734,
      "here": 735,
      "dad": 736,
      "ball": 737,
      "hes": 738,
      "expec": 739,
      "everyone": 740,
      "knew": 741,
      "aw": 742,
      "working": 743,
      "started": 744,
      "almost": 745,
      "ger": 746,
      "haha": 747,
      "joy": 748,
      "hav": 749,
      "ase": 750,
      "et": 751,
      "baby": 752,
      "give": 753,
      "rest": 754,
      "understand": 755,
      "ear": 756,
      "ssed": 757,
      "store": 758,
      "eat": 759,
      "cowork": 760,
      "ff": 761,
      "ason": 762,
      "gro": 763,
      "waiting": 764,
      "sm": 765,
      "clean": 766,
      "hur": 767,
      "ct": 768,
      "youn": 769,
      "scar": 770,
      "na": 771,
      "ran": 772,
      "forward": 773,
      "bre": 774,
      "hit": 775,
      "du": 776,
      "cont": 777,
      "interview": 778,
      "months": 779,
      "wn": 780,
      "ial": 781,
      "amazing": 782,
      "trust": 783,
      "class": 784,
      "least": 785,
      "ot": 786,
      "guess": 787,
      "ised": 788,
      "havent": 789,
      "mmer": 790,
      "morning": 791,
      "wr": 792,
      "leep": 793,
      "weeks": 794,
      "bl": 795,
      "order": 796,
      "sent": 797,
      "gave": 798,
      "taking": 799,
      "win": 800,
      "ship": 801,
      "cra": 802,
      "mind": 803,
      "scary": 804,
      "without": 805,
      "terrible": 806,
      "front": 807,
      "act": 808,
      "less": 809,
      "enjoy": 810,
      "proud": 811,
      "tried": 812,
      "sing": 813,
      "sick": 814,
      "lation": 815,
      "buy": 816,
      "min": 817,
      "iff": 818,
      "moved": 819,
      "mean": 820,
      "turn": 821,
      "count": 822,
      "actu": 823,
      "gether": 824,
      "nothing": 825,
      "pet": 826,
      "together": 827,
      "motion": 828,
      "ended": 829,
      "fort": 830,
      "til": 831,
      "broke": 832,
      "gi": 833,
      "visit": 834,
      "bed": 835,
      "diff": 836,
      "cr": 837,
      "quite": 838,
      "phone": 839,
      "comp": 840,
      "ser": 841,
      "hor": 842,
      "enough": 843,
      "hood": 844,
      "movie": 845,
      "actually": 846,
      "heard": 847,
      "pt": 848,
      "stuff": 849,
      "stud": 850,
      "head": 851,
      "also": 852,
      "watching": 853,
      "gradu": 854,
      "exam": 855,
      "doesnt": 856,
      "shes": 857,
      "door": 858,
      "port": 859,
      "move": 860,
      "sleep": 861,
      "youre": 862,
      "memor": 863,
      "ket": 864,
      "might": 865,
      "din": 866,
      "cks": 867,
      "summer": 868,
      "use": 869,
      "leave": 870,
      "whole": 871,
      "ping": 872,
      "world": 873,
      "hour": 874,
      "until": 875,
      "int": 876,
      "thinking": 877,
      "past": 878,
      "ath": 879,
      "wont": 880,
      "thanks": 881,
      "idea": 882,
      "walking": 883,
      "wonder": 884,
      "okay": 885,
      "cook": 886,
      "prepare": 887,
      "talk": 888,
      "lled": 889,
      "lear": 890,
      "gree": 891,
      "close": 892,
      "des": 893,
      "mine": 894,
      "date": 895,
      "forgot": 896,
      "else": 897,
      "cident": 898,
      "fl": 899,
      "worried": 900,
      "town": 901,
      "sk": 902,
      "ity": 903,
      "hopefully": 904,
      "sy": 905,
      "spe": 906,
      "zy": 907,
      "worked": 908,
      "shocked": 909,
      "couple": 910,
      "dinner": 911,
      "gry": 912,
      "drive": 913,
      "accident": 914,
      "light": 915,
      "chan": 916,
      "dr": 917,
      "these": 918,
      "yet": 919,
      "coworker": 920,
      "company": 921,
      "boyfriend": 922,
      "ju": 923,
      "swee": 924,
      "les": 925,
      "lied": 926,
      "posit": 927,
      "ren": 928,
      "asked": 929,
      "foot": 930,
      "heal": 931,
      "cal": 932,
      "raid": 933,
      "ken": 934,
      "team": 935,
      "playing": 936,
      "grat": 937,
      "outside": 938,
      "afraid": 939,
      "turned": 940,
      "book": 941,
      "driving": 942,
      "which": 943,
      "izz": 944,
      "pizz": 945,
      "needed": 946,
      "defin": 947,
      "break": 948,
      "ctor": 949,
      "wrong": 950,
      "promotion": 951,
      "dre": 952,
      "ens": 953,
      "seen": 954,
      "ds": 955,
      "lic": 956,
      "conf": 957,
      "enti": 958,
      "line": 959,
      "congrat": 960,
      "memories": 961,
      "decid": 962,
      "pizza": 963,
      "dro": 964,
      "anyone": 965,
      "already": 966,
      "realiz": 967,
      "prepared": 968,
      "deal": 969,
      "father": 970,
      "spend": 971,
      "ap": 972,
      "far": 973,
      "pping": 974,
      "hand": 975,
      "probab": 976,
      "pic": 977,
      "true": 978,
      "sha": 979,
      "probably": 980,
      "fast": 981,
      "dogs": 982,
      "road": 983,
      "eas": 984,
      "spec": 985,
      "decided": 986,
      "itely": 987,
      "making": 988,
      "ience": 989,
      "gets": 990,
      "check": 991,
      "gn": 992,
      "ture": 993,
      "usu": 994,
      "definitely": 995,
      "vers": 996,
      "10": 997,
      "open": 998,
      "wouldnt": 999,
      "ered": 1000,
      "cur": 1001,
      "uation": 1002,
      "erent": 1003,
      "doctor": 1004,
      "mat": 1005,
      "str": 1006,
      "seeing": 1007,
      "mas": 1008,
      "aur": 1009,
      "hurt": 1010,
      "confid": 1011,
      "gif": 1012,
      "gon": 1013,
      "import": 1014,
      "ight": 1015,
      "ans": 1016,
      "anno": 1017,
      "sweet": 1018,
      "emb": 1019,
      "ves": 1020,
      "heart": 1021,
      "cake": 1022,
      "ys": 1023,
      "uring": 1024,
      "surprised": 1025,
      "brought": 1026,
      "important": 1027,
      "itch": 1028,
      "ses": 1029,
      "talking": 1030,
      "restaur": 1031,
      "restaurant": 1032,
      "gg": 1033,
      "ially": 1034,
      "ask": 1035,
      "seems": 1036,
      "both": 1037,
      "lucky": 1038,
      "embar": 1039,
      "stre": 1040,
      "ary": 1041,
      "als": 1042,
      "health": 1043,
      "fied": 1044,
      "crazy": 1045,
      "pack": 1046,
      "sat": 1047,
      "called": 1048,
      "change": 1049,
      "angry": 1050,
      "cam": 1051,
      "during": 1052,
      "married": 1053,
      "thankful": 1054,
      "cour": 1055,
      "situation": 1056,
      "apart": 1057,
      "each": 1058,
      "gone": 1059,
      "illed": 1060,
      "rain": 1061,
      "20": 1062,
      "exp": 1063,
      "owing": 1064,
      "exper": 1065,
      "cor": 1066,
      "met": 1067,
      "fix": 1068,
      "stop": 1069,
      "tonight": 1070,
      "anc": 1071,
      "free": 1072,
      "boss": 1073,
      "face": 1074,
      "usually": 1075,
      "bring": 1076,
      "pick": 1077,
      "ven": 1078,
      "ult": 1079,
      "football": 1080,
      "gy": 1081,
      "looked": 1082,
      "lax": 1083,
      "sn": 1084,
      "cru": 1085,
      "fre": 1086,
      "loved": 1087,
      "yard": 1088,
      "fell": 1089,
      "tely": 1090,
      "appo": 1091,
      "hours": 1092,
      "bar": 1093,
      "eating": 1094,
      "rent": 1095,
      "hoping": 1096,
      "reason": 1097,
      "impre": 1098,
      "fall": 1099,
      "relax": 1100,
      "yourself": 1101,
      "young": 1102,
      "minu": 1103,
      "isnt": 1104,
      "surprise": 1105,
      "happens": 1106,
      "bill": 1107,
      "mee": 1108,
      "cess": 1109,
      "proble": 1110,
      "season": 1111,
      "neighbors": 1112,
      "agree": 1113,
      "dd": 1114,
      "present": 1115,
      "fine": 1116,
      "stor": 1117,
      "ordered": 1118,
      "fic": 1119,
      "water": 1120,
      "watched": 1121,
      "sl": 1122,
      "sun": 1123,
      "park": 1124,
      "comple": 1125,
      "huge": 1126,
      "gonna": 1127,
      "wear": 1128,
      "land": 1129,
      "anymore": 1130,
      "air": 1131,
      "bur": 1132,
      "stole": 1133,
      "rug": 1134,
      "reci": 1135,
      "horrible": 1136,
      "meeting": 1137,
      "osed": 1138,
      "theyre": 1139,
      "iet": 1140,
      "manag": 1141,
      "law": 1142,
      "paid": 1143,
      "embarr": 1144,
      "expecting": 1145,
      "vide": 1146,
      "roll": 1147,
      "teach": 1148,
      "finish": 1149,
      "city": 1150,
      "interest": 1151,
      "rid": 1152,
      "ased": 1153,
      "walk": 1154,
      "soc": 1155,
      "lone": 1156,
      "grandmother": 1157,
      "supposed": 1158,
      "led": 1159,
      "children": 1160,
      "train": 1161,
      "char": 1162,
      "anx": 1163,
      "childhood": 1164,
      "inv": 1165,
      "relation": 1166,
      "living": 1167,
      "concer": 1168,
      "bi": 1169,
      "att": 1170,
      "beach": 1171,
      "final": 1172,
      "starting": 1173,
      "ppy": 1174,
      "cut": 1175,
      "imag": 1176,
      "worth": 1177,
      "relationship": 1178,
      "ain": 1179,
      "ither": 1180,
      "sult": 1181,
      "fortun": 1182,
      "wonderful": 1183,
      "lately": 1184,
      "lun": 1185,
      "iday": 1186,
      "list": 1187,
      "terri": 1188,
      "fai": 1189,
      "ps": 1190,
      "tough": 1191,
      "sucks": 1192,
      "confident": 1193,
      "vious": 1194,
      "meet": 1195,
      "kept": 1196,
      "moving": 1197,
      "rece": 1198,
      "remind": 1199,
      "poop": 1200,
      "spent": 1201,
      "apartment": 1202,
      "ist": 1203,
      "rist": 1204,
      "compl": 1205,
      "tv": 1206,
      "ird": 1207,
      "wed": 1208,
      "bun": 1209,
      "drink": 1210,
      "later": 1211,
      "pho": 1212,
      "ition": 1213,
      "fortunate": 1214,
      "gen": 1215,
      "guys": 1216,
      "experience": 1217,
      "bod": 1218,
      "pregn": 1219,
      "grocer": 1220,
      "embarrass": 1221,
      "av": 1222,
      "anim": 1223,
      "ding": 1224,
      "mid": 1225,
      "top": 1226,
      "gross": 1227,
      "pri": 1228,
      "result": 1229,
      "cover": 1230,
      "studied": 1231,
      "tally": 1232,
      "near": 1233,
      "vies": 1234,
      "walked": 1235,
      "nu": 1236,
      "awful": 1237,
      "gift": 1238,
      "games": 1239,
      "sid": 1240,
      "ouble": 1241,
      "totally": 1242,
      "movies": 1243,
      "card": 1244,
      "caught": 1245,
      "exciting": 1246,
      "ject": 1247,
      "imagine": 1248,
      "yed": 1249,
      "ower": 1250,
      "tery": 1251,
      "ier": 1252,
      "box": 1253,
      "faith": 1254,
      "aster": 1255,
      "espec": 1256,
      "dec": 1257,
      "ensive": 1258,
      "worst": 1259,
      "cond": 1260,
      "stead": 1261,
      "different": 1262,
      "video": 1263,
      "moment": 1264,
      "mail": 1265,
      "lies": 1266,
      "theres": 1267,
      "news": 1268,
      "fight": 1269,
      "pain": 1270,
      "especially": 1271,
      "tre": 1272,
      "thre": 1273,
      "ones": 1274,
      "ants": 1275,
      "tain": 1276,
      "comes": 1277,
      "early": 1278,
      "ited": 1279,
      "fail": 1280,
      "puppy": 1281,
      "body": 1282,
      "tes": 1283,
      "christ": 1284,
      "lar": 1285,
      "ny": 1286,
      "younger": 1287,
      "emp": 1288,
      "either": 1289,
      "ank": 1290,
      "wind": 1291,
      "partner": 1292,
      "ars": 1293,
      "lonely": 1294,
      "ford": 1295,
      "ness": 1296,
      "ming": 1297,
      "instead": 1298,
      "hot": 1299,
      "hang": 1300,
      "future": 1301,
      "ction": 1302,
      "goes": 1303,
      "phe": 1304,
      "youll": 1305,
      "weight": 1306,
      "congratu": 1307,
      "shopping": 1308,
      "mus": 1309,
      "mess": 1310,
      "photo": 1311,
      "ital": 1312,
      "feels": 1313,
      "exact": 1314,
      "hind": 1315,
      "ilt": 1316,
      "phew": 1317,
      "alous": 1318,
      "jealous": 1319,
      "ah": 1320,
      "lations": 1321,
      "hone": 1322,
      "often": 1323,
      "christmas": 1324,
      "lottery": 1325,
      "others": 1326,
      "appreci": 1327,
      "fly": 1328,
      "ross": 1329,
      "born": 1330,
      "special": 1331,
      "flo": 1332,
      "lice": 1333,
      "broken": 1334,
      "truck": 1335,
      "entire": 1336,
      "threw": 1337,
      "spo": 1338,
      "behind": 1339,
      "raise": 1340,
      "stree": 1341,
      "lunch": 1342,
      "wall": 1343,
      "doll": 1344,
      "afford": 1345,
      "nephew": 1346,
      "running": 1347,
      "asha": 1348,
      "mester": 1349,
      "lling": 1350,
      "hair": 1351,
      "semester": 1352,
      "busin": 1353,
      "urch": 1354,
      "congratulations": 1355,
      "math": 1356,
      "helped": 1357,
      "small": 1358,
      "graduated": 1359,
      "business": 1360,
      "ustr": 1361,
      "applied": 1362,
      "sme": 1363,
      "ative": 1364,
      "annoying": 1365,
      "weird": 1366,
      "whats": 1367,
      "safe": 1368,
      "ashamed": 1369,
      "nor": 1370,
      "uni": 1371,
      "country": 1372,
      "cus": 1373,
      "fair": 1374,
      "pregnant": 1375,
      "sco": 1376,
      "expect": 1377,
      "ling": 1378,
      "hold": 1379,
      "stress": 1380,
      "worry": 1381,
      "works": 1382,
      "acce": 1383,
      "mist": 1384,
      "disappo": 1385,
      "grade": 1386,
      "dream": 1387,
      "paying": 1388,
      "cream": 1389,
      "prom": 1390,
      "comm": 1391,
      "diffic": 1392,
      "three": 1393,
      "trouble": 1394,
      "sitting": 1395,
      "deser": 1396,
      "half": 1397,
      "honest": 1398,
      "ents": 1399,
      "ticket": 1400,
      "ense": 1401,
      "adv": 1402,
      "plans": 1403,
      "lor": 1404,
      "shouldnt": 1405,
      "disappoin": 1406,
      "don": 1407,
      "unfortunate": 1408,
      "seem": 1409,
      "god": 1410,
      "fee": 1411,
      "extra": 1412,
      "girls": 1413,
      "bunch": 1414,
      "exactly": 1415,
      "base": 1416,
      "lose": 1417,
      "dar": 1418,
      "oo": 1419,
      "pants": 1420,
      "step": 1421,
      "realized": 1422,
      "street": 1423,
      "ride": 1424,
      "state": 1425,
      "frustr": 1426,
      "coworkers": 1427,
      "concert": 1428,
      "llow": 1429,
      "ched": 1430,
      "project": 1431,
      "cheated": 1432,
      "jump": 1433,
      "results": 1434,
      "music": 1435,
      "100": 1436,
      "window": 1437,
      "difficult": 1438,
      "ure": 1439,
      "kets": 1440,
      "gust": 1441,
      "coaster": 1442,
      "worse": 1443,
      "cance": 1444,
      "expensive": 1445,
      "storm": 1446,
      "gotten": 1447,
      "traf": 1448,
      "cannot": 1449,
      "appro": 1450,
      "online": 1451,
      "arent": 1452,
      "second": 1453,
      "minutes": 1454,
      "giving": 1455,
      "positive": 1456,
      "name": 1457,
      "lebr": 1458,
      "woke": 1459,
      "certain": 1460,
      "wards": 1461,
      "accidentally": 1462,
      "easy": 1463,
      "ced": 1464,
      "cous": 1465,
      "val": 1466,
      "ount": 1467,
      "cousin": 1468,
      "15": 1469,
      "gic": 1470,
      "hosp": 1471,
      "traffic": 1472,
      "ond": 1473,
      "busy": 1474,
      "anxious": 1475,
      "lad": 1476,
      "chance": 1477,
      "tures": 1478,
      "dropped": 1479,
      "pi": 1480,
      "envious": 1481,
      "lots": 1482,
      "bath": 1483,
      "cof": 1484,
      "hi": 1485,
      "studying": 1486,
      "war": 1487,
      "tive": 1488,
      "point": 1489,
      "keeps": 1490,
      "lau": 1491,
      "police": 1492,
      "quick": 1493,
      "coffee": 1494,
      "fect": 1495,
      "leaving": 1496,
      "laugh": 1497,
      "ived": 1498,
      "resp": 1499,
      "planning": 1500,
      "aking": 1501,
      "issu": 1502,
      "takes": 1503,
      "luckily": 1504,
      "serious": 1505,
      "gas": 1506,
      "prac": 1507,
      "manager": 1508,
      "sc": 1509,
      "inside": 1510,
      "forever": 1511,
      "problem": 1512,
      "dle": 1513,
      "ring": 1514,
      "pictures": 1515,
      "ined": 1516,
      "key": 1517,
      "ney": 1518,
      "position": 1519,
      "wea": 1520,
      "gar": 1521,
      "ild": 1522,
      "lier": 1523,
      "dead": 1524,
      "event": 1525,
      "neighborhood": 1526,
      "fish": 1527,
      "played": 1528,
      "cute": 1529,
      "bas": 1530,
      "sim": 1531,
      "oup": 1532,
      "ton": 1533,
      "ssi": 1534,
      "inten": 1535,
      "irr": 1536,
      "matter": 1537,
      "roller": 1538,
      "blo": 1539,
      "swi": 1540,
      "thes": 1541,
      "asses": 1542,
      "ext": 1543,
      "planned": 1544,
      "earlier": 1545,
      "smart": 1546,
      "turns": 1547,
      "cha": 1548,
      "pie": 1549,
      "wedding": 1550,
      "grocery": 1551,
      "chang": 1552,
      "compu": 1553,
      "type": 1554,
      "office": 1555,
      "computer": 1556,
      "cand": 1557,
      "ions": 1558,
      "learn": 1559,
      "cred": 1560,
      "tired": 1561,
      "suc": 1562,
      "starts": 1563,
      "figu": 1564,
      "ze": 1565,
      "aunt": 1566,
      "single": 1567,
      "middle": 1568,
      "build": 1569,
      "guilt": 1570,
      "looks": 1571,
      "completely": 1572,
      "ef": 1573,
      "snake": 1574,
      "cy": 1575,
      "trash": 1576,
      "trave": 1577,
      "area": 1578,
      "cancer": 1579,
      "grate": 1580,
      "ticed": 1581,
      "course": 1582,
      "weather": 1583,
      "hun": 1584,
      "hol": 1585,
      "dest": 1586,
      "dark": 1587,
      "credit": 1588,
      "across": 1589,
      "disgust": 1590,
      "listen": 1591,
      "bathroom": 1592,
      "dang": 1593,
      "ations": 1594,
      "clothes": 1595,
      "interesting": 1596,
      "mistake": 1597,
      "grateful": 1598,
      "local": 1599,
      "hospital": 1600,
      "sel": 1601,
      "ical": 1602,
      "older": 1603,
      "case": 1604,
      "brothers": 1605,
      "unt": 1606,
      "embarrassed": 1607,
      "loud": 1608,
      "unex": 1609,
      "gest": 1610,
      "loy": 1611,
      "catch": 1612,
      "ele": 1613,
      "sw": 1614,
      "stal": 1615,
      "beau": 1616,
      "ground": 1617,
      "tickets": 1618,
      "impressed": 1619,
      "pooped": 1620,
      "cry": 1621,
      "comfort": 1622,
      "pected": 1623,
      "smash": 1624,
      "learned": 1625,
      "star": 1626,
      "tice": 1627,
      "possi": 1628,
      "current": 1629,
      "gym": 1630,
      "unexpected": 1631,
      "ged": 1632,
      "rand": 1633,
      "dev": 1634,
      "grow": 1635,
      "offered": 1636,
      "perfect": 1637,
      "consid": 1638,
      "quiet": 1639,
      "crash": 1640,
      "swim": 1641,
      "bag": 1642,
      "cup": 1643,
      "mate": 1644,
      "peace": 1645,
      "everyday": 1646,
      "grandma": 1647,
      "finished": 1648,
      "meal": 1649,
      "lived": 1650,
      "funny": 1651,
      "ber": 1652,
      "um": 1653,
      "daughters": 1654,
      "received": 1655,
      "lady": 1656,
      "beauti": 1657,
      "beat": 1658,
      "disappointed": 1659,
      "pair": 1660,
      "wallet": 1661,
      "30": 1662,
      "net": 1663,
      "bus": 1664,
      "shed": 1665,
      "poor": 1666,
      "pool": 1667,
      "throw": 1668,
      "friday": 1669,
      "due": 1670,
      "respon": 1671,
      "guilty": 1672,
      "ings": 1673,
      "liked": 1674,
      "wants": 1675,
      "missed": 1676,
      "surance": 1677,
      "study": 1678,
      "irrit": 1679,
      "arri": 1680,
      "rious": 1681,
      "borrow": 1682,
      "telling": 1683,
      "sisters": 1684,
      "piece": 1685,
      "beautiful": 1686,
      "solu": 1687,
      "financ": 1688,
      "realize": 1689,
      "bow": 1690,
      "healthy": 1691,
      "scr": 1692,
      "secre": 1693,
      "word": 1694,
      "brand": 1695,
      "norm": 1696,
      "50": 1697,
      "ati": 1698,
      "woman": 1699,
      "cats": 1700,
      "lives": 1701,
      "bank": 1702,
      "sear": 1703,
      "cost": 1704,
      "save": 1705,
      "knows": 1706,
      "pulled": 1707,
      "aww": 1708,
      "given": 1709,
      "sever": 1710,
      "bills": 1711,
      "sub": 1712,
      "insurance": 1713,
      "ates": 1714,
      "accompl": 1715,
      "taken": 1716,
      "congrats": 1717,
      "unfortunately": 1718,
      "anyway": 1719,
      "frustrating": 1720,
      "clu": 1721,
      "expected": 1722,
      "kitch": 1723,
      "along": 1724,
      "nostal": 1725,
      "seemed": 1726,
      "spid": 1727,
      "impress": 1728,
      "treat": 1729,
      "bs": 1730,
      "power": 1731,
      "ering": 1732,
      "ending": 1733,
      "monday": 1734,
      "trusted": 1735,
      "relaxing": 1736,
      "terrified": 1737,
      "failed": 1738,
      "accomplish": 1739,
      "kitchen": 1740,
      "missing": 1741,
      "bt": 1742,
      "disney": 1743,
      "stuck": 1744,
      "slow": 1745,
      "forget": 1746,
      "animals": 1747,
      "changed": 1748,
      "scratch": 1749,
      "die": 1750,
      "drun": 1751,
      "ost": 1752,
      "inde": 1753,
      "ics": 1754,
      "helping": 1755,
      "song": 1756,
      "absolu": 1757,
      "irt": 1758,
      "growing": 1759,
      "surger": 1760,
      "success": 1761,
      "random": 1762,
      "form": 1763,
      "stopped": 1764,
      "needs": 1765,
      "parking": 1766,
      "training": 1767,
      "tast": 1768,
      "saving": 1769,
      "gener": 1770,
      "smell": 1771,
      "bon": 1772,
      "cash": 1773,
      "ane": 1774,
      "hell": 1775,
      "dia": 1776,
      "shoes": 1777,
      "lap": 1778,
      "teacher": 1779,
      "photos": 1780,
      "quickly": 1781,
      "fli": 1782,
      "ouch": 1783,
      "rel": 1784,
      "asking": 1785,
      "group": 1786,
      "dollars": 1787,
      "men": 1788,
      "pray": 1789,
      "dist": 1790,
      "cheating": 1791,
      "range": 1792,
      "comfortable": 1793,
      "ded": 1794,
      "become": 1795,
      "short": 1796,
      "iety": 1797,
      "stayed": 1798,
      "bra": 1799,
      "diet": 1800,
      "return": 1801,
      "cars": 1802,
      "compet": 1803,
      "social": 1804,
      "custo": 1805,
      "absolutely": 1806,
      "gan": 1807,
      "oc": 1808,
      "deli": 1809,
      "fire": 1810,
      "showed": 1811,
      "steal": 1812,
      "cleaning": 1813,
      "black": 1814,
      "reminded": 1815,
      "surgery": 1816,
      "dent": 1817,
      "dra": 1818,
      "inst": 1819,
      "ries": 1820,
      "eved": 1821,
      "classes": 1822,
      "cooking": 1823,
      "awhile": 1824,
      "gard": 1825,
      "kit": 1826,
      "rough": 1827,
      "saying": 1828,
      "cted": 1829,
      "emotion": 1830,
      "stup": 1831,
      "offer": 1832,
      "spilled": 1833,
      "ments": 1834,
      "appreciate": 1835,
      "floor": 1836,
      "search": 1837,
      "ugh": 1838,
      "vice": 1839,
      "ising": 1840,
      "paper": 1841,
      "phys": 1842,
      "stupid": 1843,
      "smo": 1844,
      "outh": 1845,
      "bum": 1846,
      "yep": 1847,
      "kinda": 1848,
      "fer": 1849,
      "church": 1850,
      "amount": 1851,
      "whenever": 1852,
      "spee": 1853,
      "camping": 1854,
      "sunday": 1855,
      "invited": 1856,
      "den": 1857,
      "dam": 1858,
      "fle": 1859,
      "helps": 1860,
      "thankfully": 1861,
      "support": 1862,
      "contro": 1863,
      "fan": 1864,
      "fit": 1865,
      "kill": 1866,
      "celebr": 1867,
      "board": 1868,
      "quest": 1869,
      "holiday": 1870,
      "ior": 1871,
      "antic": 1872,
      "leg": 1873,
      "noticed": 1874,
      "ters": 1875,
      "depre": 1876,
      "ically": 1877,
      "pub": 1878,
      "mach": 1879,
      "riding": 1880,
      "control": 1881,
      "ob": 1882,
      "squ": 1883,
      "lity": 1884,
      "tention": 1885,
      "dress": 1886,
      "animal": 1887,
      "tex": 1888,
      "tire": 1889,
      "noise": 1890,
      "choice": 1891,
      "bat": 1892,
      "ually": 1893,
      "loan": 1894,
      "furious": 1895,
      "sity": 1896,
      "stepped": 1897,
      "supplies": 1898,
      "accep": 1899,
      "nostalgic": 1900,
      "iment": 1901,
      "wanting": 1902,
      "drunk": 1903,
      "bly": 1904,
      "cas": 1905,
      "ida": 1906,
      "losing": 1907,
      "hopeful": 1908,
      "qual": 1909,
      "blame": 1910,
      "promised": 1911,
      "candy": 1912,
      "opp": 1913,
      "rican": 1914,
      "exce": 1915,
      "mped": 1916,
      "moms": 1917,
      "talked": 1918,
      "answ": 1919,
      "attention": 1920,
      "returned": 1921,
      "orida": 1922,
      "unk": 1923,
      "saved": 1924,
      "knowing": 1925,
      "chick": 1926,
      "florida": 1927,
      "selves": 1928,
      "possible": 1929,
      "aked": 1930,
      "een": 1931,
      "hon": 1932,
      "jor": 1933,
      "scre": 1934,
      "arely": 1935,
      "lying": 1936,
      "quit": 1937,
      "pleased": 1938,
      "trump": 1939,
      "hurrican": 1940,
      "problems": 1941,
      "18": 1942,
      "sudd": 1943,
      "degree": 1944,
      "spending": 1945,
      "cruise": 1946,
      "speech": 1947,
      "sudden": 1948,
      "blu": 1949,
      "fying": 1950,
      "io": 1951,
      "whe": 1952,
      "weve": 1953,
      "opt": 1954,
      "secret": 1955,
      "impressive": 1956,
      "ail": 1957,
      "lawn": 1958,
      "plane": 1959,
      "univer": 1960,
      "devast": 1961,
      "teen": 1962,
      "choco": 1963,
      "jobs": 1964,
      "tripped": 1965,
      "shows": 1966,
      "graduate": 1967,
      "responsi": 1968,
      "200": 1969,
      "ied": 1970,
      "sons": 1971,
      "shop": 1972,
      "deserve": 1973,
      "public": 1974,
      "roommate": 1975,
      "accepted": 1976,
      "kno": 1977,
      "sal": 1978,
      "ue": 1979,
      "rude": 1980,
      "content": 1981,
      "service": 1982,
      "satis": 1983,
      "baseball": 1984,
      "eventually": 1985,
      "pur": 1986,
      "ul": 1987,
      "death": 1988,
      "pot": 1989,
      "exams": 1990,
      "bonus": 1991,
      "fing": 1992,
      "ks": 1993,
      "ninten": 1994,
      "tour": 1995,
      "vom": 1996,
      "stink": 1997,
      "kes": 1998,
      "pets": 1999,
      "everywhere": 2000,
      "rect": 2001,
      "issues": 2002,
      "switch": 2003,
      "indeed": 2004,
      "nintendo": 2005,
      "mis": 2006,
      "por": 2007,
      "wre": 2008,
      "ghost": 2009,
      "longer": 2010,
      "cheat": 2011,
      "enjoyed": 2012,
      "annoyed": 2013,
      "faithful": 2014,
      "university": 2015,
      "vest": 2016,
      "rob": 2017,
      "using": 2018,
      "contest": 2019,
      "ired": 2020,
      "ises": 2021,
      "prof": 2022,
      "major": 2023,
      "clear": 2024,
      "speed": 2025,
      "figure": 2026,
      "eag": 2027,
      "sense": 2028,
      "ins": 2029,
      "stick": 2030,
      "tiv": 2031,
      "cleaned": 2032,
      "contin": 2033,
      "minute": 2034,
      "soccer": 2035,
      "large": 2036,
      "destro": 2037,
      "bother": 2038,
      "lead": 2039,
      "riage": 2040,
      "chee": 2041,
      "issed": 2042,
      "tions": 2043,
      "rescu": 2044,
      "40": 2045,
      "oid": 2046,
      "hey": 2047,
      "fear": 2048,
      "gue": 2049,
      "happening": 2050,
      "doctors": 2051,
      "fixed": 2052,
      "presentation": 2053,
      "donal": 2054,
      "12": 2055,
      "da": 2056,
      "bug": 2057,
      "antly": 2058,
      "unity": 2059,
      "ault": 2060,
      "speak": 2061,
      "fresh": 2062,
      "ahead": 2063,
      "pan": 2064,
      "werent": 2065,
      "ining": 2066,
      "driver": 2067,
      "istic": 2068,
      "number": 2069,
      "blood": 2070,
      "chocolate": 2071,
      "sold": 2072,
      "bros": 2073,
      "ches": 2074,
      "skill": 2075,
      "flying": 2076,
      "extreme": 2077,
      "bowl": 2078,
      "cri": 2079,
      "add": 2080,
      "perfor": 2081,
      "wood": 2082,
      "grandfather": 2083,
      "attack": 2084,
      "complain": 2085,
      "empty": 2086,
      "lloween": 2087,
      "hurricane": 2088,
      "blue": 2089,
      "flight": 2090,
      "gun": 2091,
      "ian": 2092,
      "winter": 2093,
      "strange": 2094,
      "ces": 2095,
      "nie": 2096,
      "amazed": 2097,
      "shame": 2098,
      "strang": 2099,
      "covered": 2100,
      "stressful": 2101,
      "mit": 2102,
      "halloween": 2103,
      "adult": 2104,
      "aced": 2105,
      "however": 2106,
      "story": 2107,
      "proper": 2108,
      "ign": 2109,
      "easier": 2110,
      "ped": 2111,
      "purch": 2112,
      "pati": 2113,
      "sand": 2114,
      "ado": 2115,
      "notice": 2116,
      "buying": 2117,
      "color": 2118,
      "putting": 2119,
      "syste": 2120,
      "package": 2121,
      "decis": 2122,
      "score": 2123,
      "honestly": 2124,
      "chedu": 2125,
      "loyal": 2126,
      "consider": 2127,
      "customer": 2128,
      "filled": 2129,
      "fault": 2130,
      "cking": 2131,
      "nerves": 2132,
      "sort": 2133,
      "sleeping": 2134,
      "opened": 2135,
      "embarrassing": 2136,
      "cried": 2137,
      "mill": 2138,
      "alive": 2139,
      "alright": 2140,
      "budd": 2141,
      "gram": 2142,
      "himself": 2143,
      "items": 2144,
      "nerve": 2145,
      "learning": 2146,
      "financial": 2147,
      "several": 2148,
      "cheese": 2149,
      "lay": 2150,
      "stra": 2151,
      "ately": 2152,
      "turning": 2153,
      "packed": 2154,
      "competition": 2155,
      "dating": 2156,
      "nur": 2157,
      "incre": 2158,
      "ons": 2159,
      "sell": 2160,
      "words": 2161,
      "miles": 2162,
      "bike": 2163,
      "0s": 2164,
      "abu": 2165,
      "fart": 2166,
      "pissed": 2167,
      "sen": 2168,
      "table": 2169,
      "tree": 2170,
      "careful": 2171,
      "babies": 2172,
      "crashed": 2173,
      "garden": 2174,
      "buddy": 2175,
      "ben": 2176,
      "ia": 2177,
      "nast": 2178,
      "vol": 2179,
      "thri": 2180,
      "loss": 2181,
      "hadnt": 2182,
      "disgusting": 2183,
      "barely": 2184,
      "pun": 2185,
      "haunt": 2186,
      "vel": 2187,
      "nope": 2188,
      "plant": 2189,
      "hasnt": 2190,
      "loves": 2191,
      "internet": 2192,
      "ized": 2193,
      "truly": 2194,
      "winning": 2195,
      "visiting": 2196,
      "ancy": 2197,
      "picked": 2198,
      "chicken": 2199,
      "system": 2200,
      "killed": 2201,
      "vid": 2202,
      "itu": 2203,
      "abi": 2204,
      "follow": 2205,
      "pull": 2206,
      "places": 2207,
      "human": 2208,
      "picture": 2209,
      "wearing": 2210,
      "anxiety": 2211,
      "accept": 2212,
      "building": 2213,
      "cro": 2214,
      "four": 2215,
      "shirt": 2216,
      "fur": 2217,
      "sig": 2218,
      "cheap": 2219,
      "couch": 2220,
      "hahaha": 2221,
      "crush": 2222,
      "appoint": 2223,
      "burger": 2224,
      "irritated": 2225,
      "distance": 2226,
      "research": 2227,
      "stair": 2228,
      "acking": 2229,
      "sentiment": 2230,
      "means": 2231,
      "cookies": 2232,
      "satisfied": 2233,
      "13": 2234,
      "cent": 2235,
      "wash": 2236,
      "beer": 2237,
      "goodness": 2238,
      "post": 2239,
      "ruined": 2240,
      "partic": 2241,
      "marriage": 2242,
      "torn": 2243,
      "staying": 2244,
      "graduation": 2245,
      "strong": 2246,
      "managed": 2247,
      "anticip": 2248,
      "stinks": 2249,
      "haunted": 2250,
      "low": 2251,
      "mc": 2252,
      "gold": 2253,
      "feed": 2254,
      "cold": 2255,
      "olar": 2256,
      "grew": 2257,
      "promo": 2258,
      "reading": 2259,
      "hungry": 2260,
      "honor": 2261,
      "eyes": 2262,
      "touch": 2263,
      "anni": 2264,
      "towards": 2265,
      "itll": 2266,
      "log": 2267,
      "ilar": 2268,
      "talent": 2269,
      "share": 2270,
      "spot": 2271,
      "normal": 2272,
      "laptop": 2273,
      "nasty": 2274,
      "len": 2275,
      "ut": 2276,
      "toys": 2277,
      "account": 2278,
      "groceries": 2279,
      "basement": 2280,
      "stairs": 2281,
      "meant": 2282,
      "known": 2283,
      "mile": 2284,
      "sky": 2285,
      "spider": 2286,
      "extremely": 2287,
      "emer": 2288,
      "egg": 2289,
      "flu": 2290,
      "gin": 2291,
      "asleep": 2292,
      "herself": 2293,
      "delic": 2294,
      "homeless": 2295,
      "checked": 2296,
      "finding": 2297,
      "respec": 2298,
      "emplo": 2299,
      "devastated": 2300,
      "os": 2301,
      "sch": 2302,
      "feet": 2303,
      "pper": 2304,
      "note": 2305,
      "acted": 2306,
      "badly": 2307,
      "rather": 2308,
      "spr": 2309,
      "drivers": 2310,
      "flow": 2311,
      "handle": 2312,
      "reminds": 2313,
      "swimming": 2314,
      "appointment": 2315,
      "apo": 2316,
      "nam": 2317,
      "ror": 2318,
      "orts": 2319,
      "station": 2320,
      "imistic": 2321,
      "ends": 2322,
      "whatever": 2323,
      "gress": 2324,
      "feelings": 2325,
      "suppose": 2326,
      "annivers": 2327,
      "pound": 2328,
      "sli": 2329,
      "invest": 2330,
      "chat": 2331,
      "upcoming": 2332,
      "themselves": 2333,
      "afterwards": 2334,
      "facebook": 2335,
      "hh": 2336,
      "toi": 2337,
      "acting": 2338,
      "bot": 2339,
      "main": 2340,
      "rush": 2341,
      "hearing": 2342,
      "anniversary": 2343,
      "bing": 2344,
      "ca": 2345,
      "kick": 2346,
      "vy": 2347,
      "beli": 2348,
      "rank": 2349,
      "decent": 2350,
      "coasters": 2351,
      "certainly": 2352,
      "delicious": 2353,
      "mall": 2354,
      "schedu": 2355,
      "arm": 2356,
      "deep": 2357,
      "ield": 2358,
      "manage": 2359,
      "fiance": 2360,
      "tax": 2361,
      "tail": 2362,
      "gged": 2363,
      "charge": 2364,
      "dollar": 2365,
      "approved": 2366,
      "optimistic": 2367,
      "donalds": 2368,
      "sentimental": 2369,
      "promoted": 2370,
      "cation": 2371,
      "lin": 2372,
      "twi": 2373,
      "vo": 2374,
      "ww": 2375,
      "erc": 2376,
      "vet": 2377,
      "exerc": 2378,
      "const": 2379,
      "sign": 2380,
      "satur": 2381,
      "kitten": 2382,
      "emotional": 2383,
      "mcdonalds": 2384,
      "em": 2385,
      "replace": 2386,
      "wel": 2387,
      "irty": 2388,
      "anywhere": 2389,
      "carpet": 2390,
      "mbers": 2391,
      "medical": 2392,
      "writ": 2393,
      "drinking": 2394,
      "flood": 2395,
      "jumped": 2396,
      "olarship": 2397,
      "scholarship": 2398,
      "jer": 2399,
      "ities": 2400,
      "organ": 2401,
      "bummer": 2402,
      "grown": 2403,
      "race": 2404,
      "career": 2405,
      "fil": 2406,
      "gives": 2407,
      "drove": 2408,
      "avoid": 2409,
      "fingers": 2410,
      "stranger": 2411,
      "employe": 2412,
      "500": 2413,
      "fant": 2414,
      "pop": 2415,
      "ular": 2416,
      "astic": 2417,
      "sol": 2418,
      "tified": 2419,
      "diag": 2420,
      "cooked": 2421,
      "entist": 2422,
      "lord": 2423,
      "diagno": 2424,
      "swe": 2425,
      "tory": 2426,
      "youve": 2427,
      "yelled": 2428,
      "somewhere": 2429,
      "shel": 2430,
      "stomach": 2431,
      "space": 2432,
      "pride": 2433,
      "achie": 2434,
      "closed": 2435,
      "opport": 2436,
      "decision": 2437,
      "emergen": 2438,
      "bal": 2439,
      "del": 2440,
      "dentist": 2441,
      "lon": 2442,
      "scream": 2443,
      "wake": 2444,
      "asing": 2445,
      "uncle": 2446,
      "stolen": 2447,
      "process": 2448,
      "fired": 2449,
      "shot": 2450,
      "against": 2451,
      "breaking": 2452,
      "invol": 2453,
      "issue": 2454,
      "suddenly": 2455,
      "toilet": 2456,
      "bright": 2457,
      "drug": 2458,
      "pol": 2459,
      "yo": 2460,
      "strug": 2461,
      "adop": 2462,
      "rot": 2463,
      "pays": 2464,
      "calling": 2465,
      "lights": 2466,
      "stressed": 2467,
      "eagles": 2468,
      "niece": 2469,
      "struggl": 2470,
      "eye": 2471,
      "hy": 2472,
      "lake": 2473,
      "eng": 2474,
      "impro": 2475,
      "nes": 2476,
      "rock": 2477,
      "dep": 2478,
      "prepar": 2479,
      "prote": 2480,
      "program": 2481,
      "diving": 2482,
      "shower": 2483,
      "creep": 2484,
      "books": 2485,
      "correct": 2486,
      "hanging": 2487,
      "travel": 2488,
      "16": 2489,
      "mm": 2490,
      "begin": 2491,
      "letting": 2492,
      "says": 2493,
      "drop": 2494,
      "practic": 2495,
      "19": 2496,
      "ci": 2497,
      "field": 2498,
      "ened": 2499,
      "sty": 2500,
      "debt": 2501,
      "spouse": 2502,
      "market": 2503,
      "students": 2504,
      "mates": 2505,
      "terrifying": 2506,
      "lebron": 2507,
      "fishing": 2508,
      "performan": 2509,
      "respect": 2510,
      "nat": 2511,
      "send": 2512,
      "repair": 2513,
      "bey": 2514,
      "keys": 2515,
      "ties": 2516,
      "load": 2517,
      "divor": 2518,
      "iled": 2519,
      "student": 2520,
      "fact": 2521,
      "shar": 2522,
      "ham": 2523,
      "boat": 2524,
      "convers": 2525,
      "grades": 2526,
      "court": 2527,
      "cancel": 2528,
      "apolog": 2529,
      "ba": 2530,
      "cts": 2531,
      "dou": 2532,
      "dry": 2533,
      "refu": 2534,
      "relie": 2535,
      "engl": 2536,
      "conne": 2537,
      "liter": 2538,
      "pleas": 2539,
      "horror": 2540,
      "memory": 2541,
      "confidence": 2542,
      "gifts": 2543,
      "seriously": 2544,
      "destroyed": 2545,
      "spray": 2546,
      "cli": 2547,
      "fed": 2548,
      "nit": 2549,
      "vi": 2550,
      "allow": 2551,
      "ween": 2552,
      "therap": 2553,
      "gotta": 2554,
      "ssing": 2555,
      "caring": 2556,
      "between": 2557,
      "six": 2558,
      "fami": 2559,
      "ances": 2560,
      "boys": 2561,
      "gging": 2562,
      "attend": 2563,
      "disgusted": 2564,
      "danger": 2565,
      "depressed": 2566,
      "25": 2567,
      "mower": 2568,
      "rat": 2569,
      "sle": 2570,
      "report": 2571,
      "llowing": 2572,
      "became": 2573,
      "although": 2574,
      "following": 2575,
      "push": 2576,
      "mostly": 2577,
      "paycheck": 2578,
      "license": 2579,
      "itude": 2580,
      "award": 2581,
      "dirty": 2582,
      "eth": 2583,
      "fat": 2584,
      "york": 2585,
      "ener": 2586,
      "medi": 2587,
      "amer": 2588,
      "bull": 2589,
      "shell": 2590,
      "likes": 2591,
      "backyard": 2592,
      "spring": 2593,
      "hardly": 2594,
      "visited": 2595,
      "effort": 2596,
      "relative": 2597,
      "bummed": 2598,
      "tournam": 2599,
      "volunt": 2600,
      "emergency": 2601,
      "involved": 2602,
      "ii": 2603,
      "ler": 2604,
      "taught": 2605,
      "ya": 2606,
      "gosh": 2607,
      "idge": 2608,
      "motiv": 2609,
      "track": 2610,
      "propo": 2611,
      "passing": 2612,
      "hands": 2613,
      "heartbroken": 2614,
      "receive": 2615,
      "steps": 2616,
      "wreck": 2617,
      "million": 2618,
      "performance": 2619,
      "volunte": 2620,
      "14": 2621,
      "dge": 2622,
      "flies": 2623,
      "mouth": 2624,
      "pig": 2625,
      "tin": 2626,
      "review": 2627,
      "argu": 2628,
      "ripped": 2629,
      "stoked": 2630,
      "direc": 2631,
      "distr": 2632,
      "tube": 2633,
      "glass": 2634,
      "grossed": 2635,
      "robbed": 2636,
      "rescue": 2637,
      "incredi": 2638,
      "flowers": 2639,
      "blast": 2640,
      "lab": 2641,
      "messed": 2642,
      "goal": 2643,
      "temp": 2644,
      "waited": 2645,
      "keeping": 2646,
      "dads": 2647,
      "trusting": 2648,
      "phones": 2649,
      "headed": 2650,
      "camp": 2651,
      "snack": 2652,
      "basket": 2653,
      "arrived": 2654,
      "successful": 2655,
      "randomly": 2656,
      "diaper": 2657,
      "skills": 2658,
      "shelter": 2659,
      "bby": 2660,
      "crow": 2661,
      "ris": 2662,
      "insp": 2663,
      "regre": 2664,
      "reward": 2665,
      "alot": 2666,
      "locked": 2667,
      "within": 2668,
      "tooth": 2669,
      "oldest": 2670,
      "boring": 2671,
      "cul": 2672,
      "suppor": 2673,
      "commit": 2674,
      "approach": 2675,
      "practice": 2676,
      "qualif": 2677,
      "sandwi": 2678,
      "twice": 2679,
      "bac": 2680,
      "hide": 2681,
      "lbs": 2682,
      "mil": 2683,
      "une": 2684,
      "wise": 2685,
      "refun": 2686,
      "neg": 2687,
      "logy": 2688,
      "trans": 2689,
      "male": 2690,
      "breakfast": 2691,
      "deserved": 2692,
      "advice": 2693,
      "cancelled": 2694,
      "celebrate": 2695,
      "tornado": 2696,
      "saturday": 2697,
      "kward": 2698,
      "xi": 2699,
      "level": 2700,
      "fright": 2701,
      "action": 2702,
      "plus": 2703,
      "dem": 2704,
      "produ": 2705,
      "bird": 2706,
      "medic": 2707,
      "personal": 2708,
      "awkward": 2709,
      "contact": 2710,
      "thanksgiving": 2711,
      "garage": 2712,
      "farted": 2713,
      "literally": 2714,
      "ctive": 2715,
      "mount": 2716,
      "rac": 2717,
      "reun": 2718,
      "enga": 2719,
      "lets": 2720,
      "expl": 2721,
      "carry": 2722,
      "focus": 2723,
      "iest": 2724,
      "applying": 2725,
      "ize": 2726,
      "clim": 2727,
      "closet": 2728,
      "closer": 2729,
      "dumb": 2730,
      "calm": 2731,
      "freaked": 2732,
      "crying": 2733,
      "deliver": 2734,
      "vomited": 2735,
      "doubt": 2736,
      "ky": 2737,
      "yi": 2738,
      "erence": 2739,
      "reach": 2740,
      "assu": 2741,
      "roof": 2742,
      "tech": 2743,
      "greed": 2744,
      "shock": 2745,
      "fridge": 2746,
      "mothers": 2747,
      "desk": 2748,
      "easily": 2749,
      "recipe": 2750,
      "moments": 2751,
      "stealing": 2752,
      "bugs": 2753,
      "beyond": 2754,
      "cross": 2755,
      "dy": 2756,
      "drank": 2757,
      "gam": 2758,
      "iod": 2759,
      "oting": 2760,
      "south": 2761,
      "stat": 2762,
      "till": 2763,
      "mood": 2764,
      "ssion": 2765,
      "period": 2766,
      "poke": 2767,
      "offic": 2768,
      "que": 2769,
      "igno": 2770,
      "mission": 2771,
      "remembered": 2772,
      "hitting": 2773,
      "brings": 2774,
      "complete": 2775,
      "charged": 2776,
      "attitude": 2777,
      "similar": 2778,
      "patient": 2779,
      "dangerous": 2780,
      "tournament": 2781,
      "hated": 2782,
      "mac": 2783,
      "round": 2784,
      "zed": 2785,
      "suit": 2786,
      "sometime": 2787,
      "nights": 2788,
      "omg": 2789,
      "lazy": 2790,
      "biggest": 2791,
      "burned": 2792,
      "smelled": 2793,
      "mistakes": 2794,
      "normally": 2795,
      "answer": 2796,
      "abused": 2797,
      "ator": 2798,
      "cart": 2799,
      "five": 2800,
      "inform": 2801,
      "erg": 2802,
      "stage": 2803,
      "ison": 2804,
      "behav": 2805,
      "bud": 2806,
      "entered": 2807,
      "peed": 2808,
      "grass": 2809,
      "ational": 2810,
      "sters": 2811,
      "evening": 2812,
      "passion": 2813,
      "ski": 2814,
      "camer": 2815,
      "crushed": 2816,
      "simple": 2817,
      "currently": 2818,
      "damage": 2819,
      "flew": 2820,
      "teenag": 2821,
      "speeding": 2822,
      "addic": 2823,
      "mountain": 2824,
      "explain": 2825,
      "ls": 2826,
      "match": 2827,
      "ole": 2828,
      "yup": 2829,
      "ade": 2830,
      "noises": 2831,
      "somehow": 2832,
      "aches": 2833,
      "confront": 2834,
      "horri": 2835,
      "flat": 2836,
      "specif": 2837,
      "laughing": 2838,
      "laughed": 2839,
      "spiders": 2840,
      "delivery": 2841,
      "purchased": 2842,
      "constantly": 2843,
      "engine": 2844,
      "yikes": 2845,
      "icked": 2846,
      "kiss": 2847,
      "none": 2848,
      "reli": 2849,
      "stru": 2850,
      "youtube": 2851,
      "heav": 2852,
      "lif": 2853,
      "noon": 2854,
      "enty": 2855,
      "hoc": 2856,
      "supr": 2857,
      "unable": 2858,
      "cards": 2859,
      "harder": 2860,
      "caused": 2861,
      "letter": 2862,
      "babysit": 2863,
      "craw": 2864,
      "skin": 2865,
      "instru": 2866,
      "signed": 2867,
      "particular": 2868,
      "slipped": 2869,
      "conversation": 2870,
      "pokemon": 2871,
      "11": 2872,
      "cting": 2873,
      "fill": 2874,
      "gri": 2875,
      "hid": 2876,
      "rad": 2877,
      "uck": 2878,
      "toes": 2879,
      "enced": 2880,
      "asy": 2881,
      "secur": 2882,
      "abo": 2883,
      "unless": 2884,
      "trac": 2885,
      "wouldve": 2886,
      "lities": 2887,
      "throwing": 2888,
      "aged": 2889,
      "iling": 2890,
      "visor": 2891,
      "desp": 2892,
      "diagnosed": 2893,
      "achieve": 2894,
      "therapy": 2895,
      "milk": 2896,
      "hockey": 2897,
      "pen": 2898,
      "task": 2899,
      "vin": 2900,
      "tom": 2901,
      "mexi": 2902,
      "white": 2903,
      "sea": 2904,
      "theyve": 2905,
      "teeth": 2906,
      "pres": 2907,
      "owner": 2908,
      "invite": 2909,
      "1000": 2910,
      "cashier": 2911,
      "responsibi": 2912,
      "ulous": 2913,
      "opportunity": 2914,
      "regret": 2915,
      "despite": 2916,
      "bru": 2917,
      "fence": 2918,
      "gate": 2919,
      "wom": 2920,
      "toe": 2921,
      "todd": 2922,
      "amuse": 2923,
      "admit": 2924,
      "immedi": 2925,
      "loose": 2926,
      "illy": 2927,
      "icle": 2928,
      "grandparents": 2929,
      "etc": 2930,
      "picking": 2931,
      "interested": 2932,
      "nearly": 2933,
      "basically": 2934,
      "peaceful": 2935,
      "accomplished": 2936,
      "blamed": 2937,
      "purse": 2938,
      "woods": 2939,
      "preparing": 2940,
      "practicing": 2941,
      "amusement": 2942,
      "cir": 2943,
      "dance": 2944,
      "kers": 2945,
      "lim": 2946,
      "lane": 2947,
      "mart": 2948,
      "tro": 2949,
      "oul": 2950,
      "tip": 2951,
      "nose": 2952,
      "theyll": 2953,
      "shi": 2954,
      "sports": 2955,
      "afternoon": 2956,
      "helpful": 2957,
      "laid": 2958,
      "wifes": 2959,
      "ession": 2960,
      "lesson": 2961,
      "charac": 2962,
      "nuts": 2963,
      "disappointing": 2964,
      "arrive": 2965,
      "physics": 2966,
      "profession": 2967,
      "straight": 2968,
      "relief": 2969,
      "basketball": 2970,
      "sandwich": 2971,
      "dish": 2972,
      "email": 2973,
      "edu": 2974,
      "heat": 2975,
      "motor": 2976,
      "plenty": 2977,
      "progress": 2978,
      "mortified": 2979,
      "ished": 2980,
      "dishes": 2981,
      "remembering": 2982,
      "supervisor": 2983,
      "earth": 2984,
      "drives": 2985,
      "calcul": 2986,
      "canceled": 2987,
      "cycle": 2988,
      "perfectly": 2989,
      "whether": 2990,
      "furnit": 2991,
      "pounds": 2992,
      "adopted": 2993,
      "english": 2994,
      "tiny": 2995,
      "behavior": 2996,
      "furniture": 2997,
      "spl": 2998,
      "uh": 2999,
      "third": 3000,
      "relate": 3001,
      "haps": 3002,
      "waste": 3003,
      "bell": 3004,
      "height": 3005,
      "seat": 3006,
      "lock": 3007,
      "peeved": 3008,
      "suff": 3009,
      "shif": 3010,
      "placed": 3011,
      "gra": 3012,
      "perhaps": 3013,
      "rage": 3014,
      "mental": 3015,
      "apparent": 3016,
      "surv": 3017,
      "please": 3018,
      "parked": 3019,
      "eaten": 3020,
      "raining": 3021,
      "landlord": 3022,
      "concerned": 3023,
      "dreams": 3024,
      "elec": 3025,
      "borrowed": 3026,
      "except": 3027,
      "responsible": 3028,
      "senior": 3029,
      "employee": 3030,
      "style": 3031,
      "information": 3032,
      "above": 3033,
      "immediately": 3034,
      "eu": 3035,
      "ram": 3036,
      "shad": 3037,
      "vir": 3038,
      "eral": 3039,
      "erly": 3040,
      "toy": 3041,
      "repe": 3042,
      "mes": 3043,
      "bear": 3044,
      "ayed": 3045,
      "cell": 3046,
      "bucks": 3047,
      "yours": 3048,
      "pumped": 3049,
      "husbands": 3050,
      "dump": 3051,
      "crap": 3052,
      "storms": 3053,
      "chall": 3054,
      "listening": 3055,
      "question": 3056,
      "holidays": 3057,
      "screen": 3058,
      "considerate": 3059,
      "believed": 3060,
      "jerk": 3061,
      "fantastic": 3062,
      "divorce": 3063,
      "apparently": 3064,
      "bread": 3065,
      "bage": 3066,
      "ditch": 3067,
      "pat": 3068,
      "rup": 3069,
      "tool": 3070,
      "rele": 3071,
      "reco": 3072,
      "nowhere": 3073,
      "worker": 3074,
      "grab": 3075,
      "presid": 3076,
      "raised": 3077,
      "stories": 3078,
      "whos": 3079,
      "earn": 3080,
      "nap": 3081,
      "dude": 3082,
      "graduating": 3083,
      "freak": 3084,
      "landed": 3085,
      "price": 3086,
      "frustrated": 3087,
      "knocked": 3088,
      "continue": 3089,
      "crossed": 3090,
      "polit": 3091,
      "security": 3092,
      "calculus": 3093,
      "cing": 3094,
      "danc": 3095,
      "hed": 3096,
      "sion": 3097,
      "ana": 3098,
      "attic": 3099,
      "media": 3100,
      "hawa": 3101,
      "soft": 3102,
      "nic": 3103,
      "happier": 3104,
      "shining": 3105,
      "iculous": 3106,
      "poin": 3107,
      "sport": 3108,
      "kinderg": 3109,
      "vacu": 3110,
      "humi": 3111,
      "condition": 3112,
      "employ": 3113,
      "science": 3114,
      "figured": 3115,
      "occas": 3116,
      "snacks": 3117,
      "cap": 3118,
      "dred": 3119,
      "fto": 3120,
      "gor": 3121,
      "mater": 3122,
      "oil": 3123,
      "py": 3124,
      "pit": 3125,
      "retire": 3126,
      "onto": 3127,
      "meat": 3128,
      "veh": 3129,
      "velo": 3130,
      "selling": 3131,
      "alco": 3132,
      "cher": 3133,
      "necess": 3134,
      "bums": 3135,
      "odd": 3136,
      "depart": 3137,
      "prefer": 3138,
      "backed": 3139,
      "stub": 3140,
      "amed": 3141,
      "appre": 3142,
      "shots": 3143,
      "mustve": 3144,
      "crack": 3145,
      "laws": 3146,
      "decide": 3147,
      "irritating": 3148,
      "subject": 3149,
      "draw": 3150,
      "thrilled": 3151,
      "sweat": 3152,
      "struggling": 3153,
      "improve": 3154,
      "refund": 3155,
      "reunion": 3156,
      "humili": 3157,
      "agreed": 3158,
      "cket": 3159,
      "las": 3160,
      "inju": 3161,
      "enjo": 3162,
      "wasted": 3163,
      "liar": 3164,
      "shut": 3165,
      "grav": 3166,
      "guard": 3167,
      "youngest": 3168,
      "wracking": 3169,
      "giant": 3170,
      "corn": 3171,
      "drinks": 3172,
      "ctions": 3173,
      "holding": 3174,
      "practiced": 3175,
      "smoo": 3176,
      "continu": 3177,
      "ability": 3178,
      "energy": 3179,
      "women": 3180,
      "appreh": 3181,
      "enjoying": 3182,
      "jail": 3183,
      "mare": 3184,
      "nd": 3185,
      "ption": 3186,
      "ress": 3187,
      "regu": 3188,
      "belong": 3189,
      "lefto": 3190,
      "alarm": 3191,
      "neck": 3192,
      "loving": 3193,
      "pee": 3194,
      "somebody": 3195,
      "join": 3196,
      "sist": 3197,
      "blessed": 3198,
      "thrones": 3199,
      "lakers": 3200,
      "mix": 3201,
      "bigger": 3202,
      "ages": 3203,
      "tests": 3204,
      "boyfriends": 3205,
      "ggle": 3206,
      "airport": 3207,
      "ridiculous": 3208,
      "pregnancy": 3209,
      "scored": 3210,
      "club": 3211,
      "taste": 3212,
      "insane": 3213,
      "beginning": 3214,
      "engaged": 3215,
      "regular": 3216,
      "fac": 3217,
      "jack": 3218,
      "text": 3219,
      "zz": 3220,
      "total": 3221,
      "goals": 3222,
      "albums": 3223,
      "rope": 3224,
      "rode": 3225,
      "upon": 3226,
      "likely": 3227,
      "urs": 3228,
      "everytime": 3229,
      "hunt": 3230,
      "driveway": 3231,
      "courage": 3232,
      "appreciative": 3233,
      "community": 3234,
      "garbage": 3235,
      "traveling": 3236,
      "questions": 3237,
      "vomit": 3238,
      "creepy": 3239,
      "education": 3240,
      "double": 3241,
      "fancy": 3242,
      "gers": 3243,
      "hill": 3244,
      "ker": 3245,
      "mic": 3246,
      "snow": 3247,
      "tend": 3248,
      "ino": 3249,
      "requ": 3250,
      "recover": 3251,
      "ays": 3252,
      "nee": 3253,
      "friendship": 3254,
      "tran": 3255,
      "trau": 3256,
      "arten": 3257,
      "sale": 3258,
      "owned": 3259,
      "parts": 3260,
      "mentary": 3261,
      "cheer": 3262,
      "hurting": 3263,
      "bedroom": 3264,
      "shape": 3265,
      "usual": 3266,
      "opening": 3267,
      "relaxed": 3268,
      "teaching": 3269,
      "praying": 3270,
      "texas": 3271,
      "miser": 3272,
      "cheesecake": 3273,
      "heights": 3274,
      "vacuum": 3275,
      "vehicle": 3276,
      "alcohol": 3277,
      "department": 3278,
      "smooth": 3279,
      "econ": 3280,
      "tho": 3281,
      "vegas": 3282,
      "aller": 3283,
      "nobody": 3284,
      "yelling": 3285,
      "ared": 3286,
      "sugar": 3287,
      "termin": 3288,
      "auto": 3289,
      "dece": 3290,
      "sales": 3291,
      "ury": 3292,
      "bomb": 3293,
      "cared": 3294,
      "nightmare": 3295,
      "dies": 3296,
      "difference": 3297,
      "packing": 3298,
      "warm": 3299,
      "financially": 3300,
      "potty": 3301,
      "exercise": 3302,
      "film": 3303,
      "hawaii": 3304,
      "ging": 3305,
      "ire": 3306,
      "kicked": 3307,
      "rout": 3308,
      "swear": 3309,
      "soup": 3310,
      "vase": 3311,
      "zer": 3312,
      "iness": 3313,
      "remin": 3314,
      "sooo": 3315,
      "held": 3316,
      "wet": 3317,
      "loyed": 3318,
      "tern": 3319,
      "develo": 3320,
      "history": 3321,
      "girlfriends": 3322,
      "recent": 3323,
      "apple": 3324,
      "scares": 3325,
      "steak": 3326,
      "dumped": 3327,
      "interviews": 3328,
      "bling": 3329,
      "intro": 3330,
      "athle": 3331,
      "embarass": 3332,
      "corner": 3333,
      "hotel": 3334,
      "hired": 3335,
      "chain": 3336,
      "hundred": 3337,
      "quality": 3338,
      "followed": 3339,
      "schedule": 3340,
      "slept": 3341,
      "motorcycle": 3342,
      "kindergarten": 3343,
      "reminis": 3344,
      "ban": 3345,
      "cable": 3346,
      "eld": 3347,
      "ient": 3348,
      "ore": 3349,
      "wro": 3350,
      "tos": 3351,
      "wild": 3352,
      "neat": 3353,
      "hole": 3354,
      "cock": 3355,
      "uncomfortable": 3356,
      "someones": 3357,
      "apped": 3358,
      "plays": 3359,
      "calls": 3360,
      "higher": 3361,
      "league": 3362,
      "understanding": 3363,
      "hurts": 3364,
      "doors": 3365,
      "drama": 3366,
      "trained": 3367,
      "worthy": 3368,
      "prize": 3369,
      "videos": 3370,
      "advant": 3371,
      "cousins": 3372,
      "machine": 3373,
      "property": 3374,
      "argument": 3375,
      "apprehensive": 3376,
      "wrote": 3377,
      "bri": 3378,
      "pte": 3379,
      "whel": 3380,
      "zoo": 3381,
      "ening": 3382,
      "hall": 3383,
      "seas": 3384,
      "septe": 3385,
      "someday": 3386,
      "nia": 3387,
      "anytime": 3388,
      "ural": 3389,
      "everybody": 3390,
      "gage": 3391,
      "pose": 3392,
      "convin": 3393,
      "span": 3394,
      "sounded": 3395,
      "apply": 3396,
      "applic": 3397,
      "aggrav": 3398,
      "turtle": 3399,
      "france": 3400,
      "highway": 3401,
      "blind": 3402,
      "series": 3403,
      "appe": 3404,
      "checking": 3405,
      "appreciated": 3406,
      "spoke": 3407,
      "advance": 3408,
      "hiking": 3409,
      "obvious": 3410,
      "knock": 3411,
      "skydiving": 3412,
      "screaming": 3413,
      "pigs": 3414,
      "negative": 3415,
      "heavy": 3416,
      "electri": 3417,
      "september": 3418,
      "gig": 3419,
      "psy": 3420,
      "recomm": 3421,
      "mechan": 3422,
      "members": 3423,
      "female": 3424,
      "ceed": 3425,
      "somewhat": 3426,
      "unic": 3427,
      "ups": 3428,
      "compe": 3429,
      "stock": 3430,
      "stood": 3431,
      "size": 3432,
      "funeral": 3433,
      "path": 3434,
      "walmart": 3435,
      "truth": 3436,
      "marry": 3437,
      "marath": 3438,
      "speaking": 3439,
      "shake": 3440,
      "fighting": 3441,
      "champ": 3442,
      "staring": 3443,
      "accomplishment": 3444,
      "general": 3445,
      "loaned": 3446,
      "excell": 3447,
      "qualified": 3448,
      "challen": 3449,
      "president": 3450,
      "occasion": 3451,
      "cere": 3452,
      "fro": 3453,
      "juni": 3454,
      "thurs": 3455,
      "attrac": 3456,
      "beard": 3457,
      "lected": 3458,
      "bul": 3459,
      "daycare": 3460,
      "oked": 3461,
      "trad": 3462,
      "stores": 3463,
      "overall": 3464,
      "printer": 3465,
      "trick": 3466,
      "chef": 3467,
      "intern": 3468,
      "meaning": 3469,
      "judge": 3470,
      "falling": 3471,
      "slam": 3472,
      "fairly": 3473,
      "promise": 3474,
      "awww": 3475,
      "severe": 3476,
      "physical": 3477,
      "porch": 3478,
      "bottle": 3479,
      "familiar": 3480,
      "specific": 3481,
      "dancing": 3482,
      "miserable": 3483,
      "junior": 3484,
      "aper": 3485,
      "oce": 3486,
      "rab": 3487,
      "soul": 3488,
      "inclu": 3489,
      "member": 3490,
      "alled": 3491,
      "tific": 3492,
      "suck": 3493,
      "press": 3494,
      "inder": 3495,
      "conven": 3496,
      "waitress": 3497,
      "payment": 3498,
      "roommates": 3499,
      "understandable": 3500,
      "write": 3501,
      "cali": 3502,
      "experi": 3503,
      "tasted": 3504,
      "dragon": 3505,
      "anticipating": 3506,
      "drugs": 3507,
      "americ": 3508,
      "advantage": 3509,
      "thursday": 3510,
      "sink": 3511,
      "tinder": 3512,
      "ug": 3513,
      "annu": 3514,
      "atta": 3515,
      "rely": 3516,
      "regi": 3517,
      "betr": 3518,
      "fries": 3519,
      "activ": 3520,
      "plate": 3521,
      "decor": 3522,
      "common": 3523,
      "aft": 3524,
      "bored": 3525,
      "gather": 3526,
      "recor": 3527,
      "ruin": 3528,
      "shoe": 3529,
      "nail": 3530,
      "counting": 3531,
      "compan": 3532,
      "stray": 3533,
      "bringing": 3534,
      "presents": 3535,
      "expectations": 3536,
      "songs": 3537,
      "flir": 3538,
      "braves": 3539,
      "wheel": 3540,
      "professional": 3541,
      "marathon": 3542,
      "excellent": 3543,
      "annual": 3544,
      "300": 3545,
      "fc": 3546,
      "ply": 3547,
      "anti": 3548,
      "bust": 3549,
      "built": 3550,
      "enter": 3551,
      "model": 3552,
      "cops": 3553,
      "term": 3554,
      "def": 3555,
      "previous": 3556,
      "ops": 3557,
      "spit": 3558,
      "magic": 3559,
      "lovely": 3560,
      "tuition": 3561,
      "mployed": 3562,
      "mario": 3563,
      "trail": 3564,
      "jects": 3565,
      "rained": 3566,
      "fights": 3567,
      "snakes": 3568,
      "scratched": 3569,
      "dedic": 3570,
      "eggs": 3571,
      "volunteered": 3572,
      "diapers": 3573,
      "pressure": 3574,
      "toddler": 3575,
      "injured": 3576,
      "challenge": 3577,
      "21": 3578,
      "cab": 3579,
      "cla": 3580,
      "fond": 3581,
      "mal": 3582,
      "ures": 3583,
      "zi": 3584,
      "infe": 3585,
      "itar": 3586,
      "soda": 3587,
      "bee": 3588,
      "roach": 3589,
      "gee": 3590,
      "buf": 3591,
      "workout": 3592,
      "oken": 3593,
      "excu": 3594,
      "otherwise": 3595,
      "ille": 3596,
      "affe": 3597,
      "homework": 3598,
      "mul": 3599,
      "schools": 3600,
      "overwhel": 3601,
      "tricks": 3602,
      "agent": 3603,
      "shooting": 3604,
      "clown": 3605,
      "wishing": 3606,
      "mark": 3607,
      "vision": 3608,
      "breed": 3609,
      "situations": 3610,
      "value": 3611,
      "selfe": 3612,
      "netfli": 3613,
      "texting": 3614,
      "nursing": 3615,
      "delivered": 3616,
      "lifting": 3617,
      "europe": 3618,
      "leftovers": 3619,
      "athletic": 3620,
      "netflix": 3621,
      "cused": 3622,
      "dated": 3623,
      "lent": 3624,
      "mow": 3625,
      "sending": 3626,
      "yuck": 3627,
      "thunder": 3628,
      "ination": 3629,
      "ann": 3630,
      "chasing": 3631,
      "gestu": 3632,
      "tight": 3633,
      "butt": 3634,
      "ache": 3635,
      "tele": 3636,
      "determin": 3637,
      "illness": 3638,
      "ohh": 3639,
      "compare": 3640,
      "guitar": 3641,
      "provide": 3642,
      "whoa": 3643,
      "player": 3644,
      "cure": 3645,
      "wins": 3646,
      "wondering": 3647,
      "dealing": 3648,
      "teachers": 3649,
      "sides": 3650,
      "painting": 3651,
      "message": 3652,
      "nephews": 3653,
      "slowly": 3654,
      "related": 3655,
      "casino": 3656,
      "welcome": 3657,
      "relatives": 3658,
      "elderly": 3659,
      "ocean": 3660,
      "buffe": 3661,
      "90s": 3662,
      "bb": 3663,
      "bite": 3664,
      "non": 3665,
      "sau": 3666,
      "uts": 3667,
      "envy": 3668,
      "orable": 3669,
      "heck": 3670,
      "adorable": 3671,
      "mosqu": 3672,
      "tered": 3673,
      "pos": 3674,
      "spare": 3675,
      "pushed": 3676,
      "underwear": 3677,
      "standing": 3678,
      "foods": 3679,
      "highschool": 3680,
      "restroom": 3681,
      "nah": 3682,
      "channe": 3683,
      "dealer": 3684,
      "explo": 3685,
      "airplane": 3686,
      "boxes": 3687,
      "painful": 3688,
      "valu": 3689,
      "elementary": 3690,
      "bags": 3691,
      "taxes": 3692,
      "pleasant": 3693,
      "incredible": 3694,
      "supportive": 3695,
      "committed": 3696,
      "uneasy": 3697,
      "teenager": 3698,
      "material": 3699,
      "application": 3700,
      "attractive": 3701,
      "mosqui": 3702,
      "fla": 3703,
      "gth": 3704,
      "jour": 3705,
      "silly": 3706,
      "ware": 3707,
      "wine": 3708,
      "yall": 3709,
      "thous": 3710,
      "ats": 3711,
      "rear": 3712,
      "ites": 3713,
      "stren": 3714,
      "becoming": 3715,
      "rich": 3716,
      "album": 3717,
      "ada": 3718,
      "shy": 3719,
      "boo": 3720,
      "madden": 3721,
      "hometown": 3722,
      "assign": 3723,
      "helor": 3724,
      "taco": 3725,
      "weekends": 3726,
      "trips": 3727,
      "joyful": 3728,
      "flash": 3729,
      "changing": 3730,
      "travelling": 3731,
      "secrets": 3732,
      "mention": 3733,
      "purpose": 3734,
      "purchase": 3735,
      "management": 3736,
      "labor": 3737,
      "bachelor": 3738,
      "ignored": 3739,
      "humiliated": 3740,
      "experienced": 3741,
      "thousand": 3742,
      "17": 3743,
      "400": 3744,
      "vent": 3745,
      "wit": 3746,
      "sti": 3747,
      "habit": 3748,
      "golf": 3749,
      "livid": 3750,
      "unknown": 3751,
      "nies": 3752,
      "nicer": 3753,
      "tear": 3754,
      "hopes": 3755,
      "overseas": 3756,
      "peoples": 3757,
      "litter": 3758,
      "lace": 3759,
      "izing": 3760,
      "closing": 3761,
      "collea": 3762,
      "parce": 3763,
      "hurry": 3764,
      "blan": 3765,
      "singing": 3766,
      "flag": 3767,
      "cord": 3768,
      "frequ": 3769,
      "bio": 3770,
      "destroy": 3771,
      "properly": 3772,
      "abuse": 3773,
      "anticipation": 3774,
      "talented": 3775,
      "frightened": 3776,
      "budget": 3777,
      "graph": 3778,
      "necessary": 3779,
      "califor": 3780,
      "announ": 3781,
      "gesture": 3782,
      "buffet": 3783,
      "aver": 3784,
      "baked": 3785,
      "dying": 3786,
      "ec": 3787,
      "glu": 3788,
      "jury": 3789,
      "stri": 3790,
      "andon": 3791,
      "isod": 3792,
      "isol": 3793,
      "neither": 3794,
      "abandon": 3795,
      "fried": 3796,
      "dear": 3797,
      "puked": 3798,
      "episod": 3799,
      "function": 3800,
      "laun": 3801,
      "bitter": 3802,
      "reasons": 3803,
      "nearby": 3804,
      "donuts": 3805,
      "respond": 3806,
      "starved": 3807,
      "salad": 3808,
      "daily": 3809,
      "laying": 3810,
      "writing": 3811,
      "direction": 3812,
      "employer": 3813,
      "necklace": 3814,
      "multi": 3815,
      "parcel": 3816,
      "california": 3817,
      "2nd": 3818,
      "jam": 3819,
      "lan": 3820,
      "tou": 3821,
      "yum": 3822,
      "thro": 3823,
      "ery": 3824,
      "reje": 3825,
      "wasp": 3826,
      "gover": 3827,
      "sex": 3828,
      "force": 3829,
      "adays": 3830,
      "dos": 3831,
      "pepper": 3832,
      "abroad": 3833,
      "acts": 3834,
      "grant": 3835,
      "perform": 3836,
      "rap": 3837,
      "spir": 3838,
      "sight": 3839,
      "direct": 3840,
      "quar": 3841,
      "kinds": 3842,
      "upsetting": 3843,
      "ences": 3844,
      "superbowl": 3845,
      "trustworthy": 3846,
      "ketch": 3847,
      "elses": 3848,
      "couples": 3849,
      "terribly": 3850,
      "failing": 3851,
      "warning": 3852,
      "considered": 3853,
      "emotions": 3854,
      "damn": 3855,
      "washing": 3856,
      "chatting": 3857,
      "organized": 3858,
      "nature": 3859,
      "medicine": 3860,
      "officer": 3861,
      "mountains": 3862,
      "shift": 3863,
      "ditched": 3864,
      "december": 3865,
      "register": 3866,
      "strength": 3867,
      "35": 3868,
      "chair": 3869,
      "dirt": 3870,
      "gal": 3871,
      "kni": 3872,
      "kore": 3873,
      "mouse": 3874,
      "thor": 3875,
      "inconsiderate": 3876,
      "arrest": 3877,
      "loans": 3878,
      "iring": 3879,
      "nowadays": 3880,
      "unsure": 3881,
      "actions": 3882,
      "happiness": 3883,
      "poison": 3884,
      "finances": 3885,
      "overcome": 3886,
      "tues": 3887,
      "paint": 3888,
      "tors": 3889,
      "grandpa": 3890,
      "jeans": 3891,
      "duty": 3892,
      "interviewed": 3893,
      "skating": 3894,
      "spelling": 3895,
      "society": 3896,
      "succeed": 3897,
      "bowling": 3898,
      "physically": 3899,
      "crime": 3900,
      "benef": 3901,
      "apologize": 3902,
      "risk": 3903,
      "rewarding": 3904,
      "radio": 3905,
      "responsibility": 3906,
      "retirement": 3907,
      "stubbed": 3908,
      "lend": 3909,
      "mass": 3910,
      "smile": 3911,
      "tim": 3912,
      "wound": 3913,
      "ism": 3914,
      "ley": 3915,
      "forgive": 3916,
      "chased": 3917,
      "nest": 3918,
      "role": 3919,
      "location": 3920,
      "docu": 3921,
      "irked": 3922,
      "willing": 3923,
      "icy": 3924,
      "pocket": 3925,
      "houses": 3926,
      "monsters": 3927,
      "shocking": 3928,
      "brown": 3929,
      "wore": 3930,
      "creat": 3931,
      "county": 3932,
      "gia": 3933,
      "scold": 3934,
      "leading": 3935,
      "rescued": 3936,
      "grandfathers": 3937,
      "attacked": 3938,
      "abilities": 3939,
      "particip": 3940,
      "written": 3941,
      "depend": 3942,
      "client": 3943,
      "distraught": 3944,
      "demand": 3945,
      "mexican": 3946,
      "cherish": 3947,
      "obviously": 3948,
      "internship": 3949,
      "average": 3950,
      "multiple": 3951,
      "granted": 3952,
      "24": 3953,
      "800": 3954,
      "aid": 3955,
      "bour": 3956,
      "bak": 3957,
      "bothers": 3958,
      "eww": 3959,
      "ires": 3960,
      "jap": 3961,
      "junk": 3962,
      "knee": 3963,
      "mw": 3964,
      "nis": 3965,
      "national": 3966,
      "omy": 3967,
      "oven": 3968,
      "raf": 3969,
      "tar": 3970,
      "tgage": 3971,
      "uber": 3972,
      "ina": 3973,
      "ines": 3974,
      "ange": 3975,
      "aters": 3976,
      "atleast": 3977,
      "itive": 3978,
      "itself": 3979,
      "hesit": 3980,
      "selected": 3981,
      "ali": 3982,
      "chill": 3983,
      "west": 3984,
      "roaches": 3985,
      "mold": 3986,
      "cop": 3987,
      "butter": 3988,
      "essor": 3989,
      "unit": 3990,
      "friendly": 3991,
      "acing": 3992,
      "ionship": 3993,
      "anybody": 3994,
      "plu": 3995,
      "debit": 3996,
      "chose": 3997,
      "sured": 3998,
      "contr": 3999,
      "mortgage": 4000,
      "prank": 4001,
      "downstairs": 4002,
      "aging": 4003,
      "certific": 4004,
      "tennis": 4005,
      "hua": 4006,
      "blow": 4007,
      "mini": 4008,
      "horse": 4009,
      "expired": 4010,
      "rides": 4011,
      "avail": 4012,
      "treated": 4013,
      "communic": 4014,
      "jumping": 4015,
      "intense": 4016,
      "rollercoaster": 4017,
      "candid": 4018,
      "atia": 4019,
      "answers": 4020,
      "screamed": 4021,
      "colors": 4022,
      "croatia": 4023,
      "believ": 4024,
      "voice": 4025,
      "flooded": 4026,
      "refused": 4027,
      "allowed": 4028,
      "incredibly": 4029,
      "passionate": 4030,
      "crawling": 4031,
      "split": 4032,
      "introdu": 4033,
      "recommend": 4034,
      "america": 4035,
      "record": 4036,
      "throat": 4037,
      "22": 4038,
      "90": 4039,
      "pend": 4040,
      "ual": 4041,
      "umb": 4042,
      "ufc": 4043,
      "inno": 4044,
      "tori": 4045,
      "ony": 4046,
      "lla": 4047,
      "aming": 4048,
      "holy": 4049,
      "ppies": 4050,
      "august": 4051,
      "deer": 4052,
      "decl": 4053,
      "thinks": 4054,
      "item": 4055,
      "sibl": 4056,
      "bless": 4057,
      "blessing": 4058,
      "brow": 4059,
      "throughout": 4060,
      "sadly": 4061,
      "supermarket": 4062,
      "surprising": 4063,
      "counter": 4064,
      "uses": 4065,
      "talks": 4066,
      "priv": 4067,
      "prior": 4068,
      "muscle": 4069,
      "windows": 4070,
      "basic": 4071,
      "considering": 4072,
      "savings": 4073,
      "smoking": 4074,
      "bothering": 4075,
      "lines": 4076,
      "liness": 4077,
      "exercising": 4078,
      "proposed": 4079,
      "inspired": 4080,
      "static": 4081,
      "characters": 4082,
      "selfemployed": 4083,
      "ecstatic": 4084,
      "arrested": 4085,
      "tuesday": 4086,
      "siblings": 4087,
      "bang": 4088,
      "cs": 4089,
      "coun": 4090,
      "cav": 4091,
      "dise": 4092,
      "pink": 4093,
      "rare": 4094,
      "replaced": 4095,
      "socks": 4096,
      "youd": 4097,
      "het": 4098,
      "forth": 4099,
      "gru": 4100,
      "prec": 4101,
      "poo": 4102,
      "ourselves": 4103,
      "pulling": 4104,
      "puppies": 4105,
      "chemist": 4106,
      "tune": 4107,
      "birds": 4108,
      "dressed": 4109,
      "pics": 4110,
      "masters": 4111,
      "grandmothers": 4112,
      "wednes": 4113,
      "hire": 4114,
      "professor": 4115,
      "clearly": 4116,
      "colorado": 4117,
      "scheduled": 4118,
      "families": 4119,
      "approached": 4120,
      "transfer": 4121,
      "engineering": 4122,
      "electric": 4123,
      "mechanic": 4124,
      "tradition": 4125,
      "valuable": 4126,
      "isolated": 4127,
      "knife": 4128,
      "chemistry": 4129,
      "bond": 4130,
      "ey": 4131,
      "equ": 4132,
      "hilar": 4133,
      "nment": 4134,
      "san": 4135,
      "vic": 4136,
      "orig": 4137,
      "edge": 4138,
      "stro": 4139,
      "secure": 4140,
      "keto": 4141,
      "tial": 4142,
      "hobby": 4143,
      "sum": 4144,
      "sucked": 4145,
      "shorts": 4146,
      "tea": 4147,
      "oper": 4148,
      "fool": 4149,
      "eval": 4150,
      "mbled": 4151,
      "chest": 4152,
      "glasses": 4153,
      "thoughtful": 4154,
      "favorites": 4155,
      "reser": 4156,
      "ordering": 4157,
      "lessons": 4158,
      "heading": 4159,
      "leaves": 4160,
      "teams": 4161,
      "farm": 4162,
      "changes": 4163,
      "numbers": 4164,
      "tesla": 4165,
      "pile": 4166,
      "simply": 4167,
      "matters": 4168,
      "independ": 4169,
      "octo": 4170,
      "depressing": 4171,
      "freshman": 4172,
      "posted": 4173,
      "binge": 4174,
      "motivated": 4175,
      "crowd": 4176,
      "crossing": 4177,
      "camera": 4178,
      "cameras": 4179,
      "suprising": 4180,
      "limit": 4181,
      "economy": 4182,
      "laundry": 4183,
      "precious": 4184,
      "origin": 4185,
      "bout": 4186,
      "bmw": 4187,
      "cast": 4188,
      "ee": 4189,
      "faster": 4190,
      "mper": 4191,
      "rate": 4192,
      "sne": 4193,
      "sses": 4194,
      "scam": 4195,
      "tw": 4196,
      "tall": 4197,
      "toward": 4198,
      "rep": 4199,
      "hab": 4200,
      "besides": 4201,
      "hest": 4202,
      "idi": 4203,
      "imp": 4204,
      "ticked": 4205,
      "coach": 4206,
      "unhappy": 4207,
      "shat": 4208,
      "comfor": 4209,
      "hardest": 4210,
      "causing": 4211,
      "gut": 4212,
      "cony": 4213,
      "recital": 4214,
      "thrown": 4215,
      "thoughts": 4216,
      "disaster": 4217,
      "husky": 4218,
      "showing": 4219,
      "huh": 4220,
      "breath": 4221,
      "classic": 4222,
      "actual": 4223,
      "serving": 4224,
      "booked": 4225,
      "appropri": 4226,
      "scen": 4227,
      "tons": 4228,
      "catching": 4229,
      "unexpectedly": 4230,
      "clue": 4231,
      "tastes": 4232,
      "paperwork": 4233,
      "battle": 4234,
      "addition": 4235,
      "signi": 4236,
      "balcony": 4237,
      "natural": 4238,
      "approaching": 4239,
      "assume": 4240,
      "gaming": 4241,
      "spanish": 4242,
      "championship": 4243,
      "journey": 4244,
      "flags": 4245,
      "bakery": 4246,
      "available": 4247,
      "innocent": 4248,
      "wednesday": 4249,
      "october": 4250,
      "60": 4251,
      "awaiting": 4252,
      "bake": 4253,
      "fra": 4254,
      "hmm": 4255,
      "slight": 4256,
      "usa": 4257,
      "inspec": 4258,
      "renew": 4259,
      "retired": 4260,
      "returning": 4261,
      "arms": 4262,
      "sole": 4263,
      "began": 4264,
      "veget": 4265,
      "goo": 4266,
      "section": 4267,
      "altern": 4268,
      "admi": 4269,
      "festi": 4270,
      "yell": 4271,
      "sushi": 4272,
      "coll": 4273,
      "deposit": 4274,
      "green": 4275,
      "poten": 4276,
      "assist": 4277,
      "spar": 4278,
      "mentally": 4279,
      "players": 4280,
      "tension": 4281,
      "payday": 4282,
      "stepping": 4283,
      "nailed": 4284,
      "craving": 4285,
      "crit": 4286,
      "complic": 4287,
      "stuffed": 4288,
      "breaks": 4289,
      "entia": 4290,
      "barking": 4291,
      "deserves": 4292,
      "sca": 4293,
      "election": 4294,
      "response": 4295,
      "submit": 4296,
      "treatment": 4297,
      "smoke": 4298,
      "depression": 4299,
      "punish": 4300,
      "employees": 4301,
      "solve": 4302,
      "struggled": 4303,
      "apologized": 4304,
      "dementia": 4305,
      "relieved": 4306,
      "instructor": 4307,
      "survived": 4308,
      "ramen": 4309,
      "patience": 4310,
      "hunting": 4311,
      "traumat": 4312,
      "allergic": 4313,
      "attached": 4314,
      "television": 4315,
      "private": 4316,
      "cavs": 4317,
      "signific": 4318,
      "95": 4319,
      "cial": 4320,
      "fb": 4321,
      "fal": 4322,
      "fru": 4323,
      "hits": 4324,
      "ible": 4325,
      "lack": 4326,
      "mir": 4327,
      "mma": 4328,
      "pitch": 4329,
      "tat": 4330,
      "wing": 4331,
      "wol": 4332,
      "yay": 4333,
      "rema": 4334,
      "refle": 4335,
      "envir": 4336,
      "theme": 4337,
      "stain": 4338,
      "sets": 4339,
      "alley": 4340,
      "rip": 4341,
      "adopt": 4342,
      "ender": 4343,
      "irma": 4344,
      "worries": 4345,
      "pler": 4346,
      "joined": 4347,
      "lotto": 4348,
      "finals": 4349,
      "pump": 4350,
      "events": 4351,
      "rules": 4352,
      "turkey": 4353,
      "gling": 4354,
      "understood": 4355,
      "discovered": 4356,
      "sidewalk": 4357,
      "marks": 4358,
      "rench": 4359,
      "complex": 4360,
      "relationships": 4361,
      "simpler": 4362,
      "block": 4363,
      "killing": 4364,
      "legs": 4365,
      "squid": 4366,
      "oppos": 4367,
      "2000": 4368,
      "nurse": 4369,
      "volunteer": 4370,
      "survive": 4371,
      "dumpster": 4372,
      "bearded": 4373,
      "determined": 4374,
      "dealership": 4375,
      "abandoned": 4376,
      "raffle": 4377,
      "certification": 4378,
      "idiot": 4379,
      "environ": 4380,
      "opposite": 4381,
      "45": 4382,
      "64": 4383,
      "80s": 4384,
      "cig": 4385,
      "fake": 4386,
      "gs": 4387,
      "gni": 4388,
      "kar": 4389,
      "infront": 4390,
      "ano": 4391,
      "request": 4392,
      "ishes": 4393,
      "army": 4394,
      "lift": 4395,
      "host": 4396,
      "ably": 4397,
      "sug": 4398,
      "cope": 4399,
      "unfair": 4400,
      "unities": 4401,
      "workers": 4402,
      "temper": 4403,
      "deb": 4404,
      "indi": 4405,
      "howd": 4406,
      "joke": 4407,
      "pota": 4408,
      "evil": 4409,
      "sil": 4410,
      "blew": 4411,
      "sorts": 4412,
      "highly": 4413,
      "reality": 4414,
      "cowboys": 4415,
      "headphones": 4416,
      "gifted": 4417,
      "restaurants": 4418,
      "burn": 4419,
      "loneliness": 4420,
      "prices": 4421,
      "haircut": 4422,
      "donate": 4423,
      "hike": 4424,
      "swer": 4425,
      "treats": 4426,
      "disneyland": 4427,
      "choices": 4428,
      "wrecked": 4429,
      "punch": 4430,
      "invested": 4431,
      "product": 4432,
      "mexico": 4433,
      "circus": 4434,
      "shady": 4435,
      "tools": 4436,
      "recogni": 4437,
      "regularly": 4438,
      "required": 4439,
      "develop": 4440,
      "rabbit": 4441,
      "activities": 4442,
      "langu": 4443,
      "believable": 4444,
      "counse": 4445,
      "stroke": 4446,
      "environment": 4447,
      "aa": 4448,
      "aven": 4449,
      "mv": 4450,
      "mble": 4451,
      "rd": 4452,
      "rarely": 4453,
      "tled": 4454,
      "wan": 4455,
      "wra": 4456,
      "wars": 4457,
      "influ": 4458,
      "regard": 4459,
      "theater": 4460,
      "assured": 4461,
      "belt": 4462,
      "adjust": 4463,
      "immu": 4464,
      "febru": 4465,
      "nove": 4466,
      "coast": 4467,
      "notes": 4468,
      "express": 4469,
      "acket": 4470,
      "access": 4471,
      "shir": 4472,
      "carto": 4473,
      "icted": 4474,
      "waking": 4475,
      "storage": 4476,
      "provid": 4477,
      "tual": 4478,
      "setting": 4479,
      "phy": 4480,
      "personally": 4481,
      "navy": 4482,
      "skunk": 4483,
      "accidents": 4484,
      "july": 4485,
      "picnic": 4486,
      "completed": 4487,
      "ledge": 4488,
      "fortunately": 4489,
      "midnight": 4490,
      "messy": 4491,
      "worrying": 4492,
      "rollercoasters": 4493,
      "hung": 4494,
      "possibly": 4495,
      "pieces": 4496,
      "subway": 4497,
      "generation": 4498,
      "flip": 4499,
      "brave": 4500,
      "custom": 4501,
      "squir": 4502,
      "finger": 4503,
      "donald": 4504,
      "straw": 4505,
      "rotten": 4506,
      "protective": 4507,
      "respectful": 4508,
      "directions": 4509,
      "character": 4510,
      "reminisce": 4511,
      "excuse": 4512,
      "episode": 4513,
      "benefits": 4514,
      "hesitant": 4515,
      "evaluation": 4516,
      "festival": 4517,
      "wanna": 4518,
      "immune": 4519,
      "february": 4520,
      "french": 4521,
      "gent": 4522,
      "hen": 4523,
      "kin": 4524,
      "pill": 4525,
      "sis": 4526,
      "sketch": 4527,
      "tent": 4528,
      "var": 4529,
      "thick": 4530,
      "infor": 4531,
      "info": 4532,
      "redi": 4533,
      "rella": 4534,
      "ingredi": 4535,
      "itis": 4536,
      "orland": 4537,
      "ows": 4538,
      "session": 4539,
      "fortune": 4540,
      "chic": 4541,
      "outcome": 4542,
      "neu": 4543,
      "doo": 4544,
      "pes": 4545,
      "moon": 4546,
      "hers": 4547,
      "aud": 4548,
      "teh": 4549,
      "demo": 4550,
      "ohhh": 4551,
      "choose": 4552,
      "chores": 4553,
      "asser": 4554,
      "guest": 4555,
      "kidding": 4556,
      "condo": 4557,
      "prin": 4558,
      "tries": 4559,
      "pretend": 4560,
      "beforehand": 4561,
      "settle": 4562,
      "gained": 4563,
      "clothing": 4564,
      "tells": 4565,
      "aware": 4566,
      "blown": 4567,
      "serve": 4568,
      "headache": 4569,
      "fixing": 4570,
      "rolls": 4571,
      "bility": 4572,
      "messing": 4573,
      "safely": 4574,
      "advent": 4575,
      "names": 4576,
      "hospice": 4577,
      "ladies": 4578,
      "types": 4579,
      "smashed": 4580,
      "nostalgia": 4581,
      "ghosts": 4582,
      "gressive": 4583,
      "maintain": 4584,
      "solved": 4585,
      "balance": 4586,
      "protect": 4587,
      "connect": 4588,
      "gambling": 4589,
      "teenagers": 4590,
      "struggle": 4591,
      "tasks": 4592,
      "grabbed": 4593,
      "political": 4594,
      "embarassed": 4595,
      "psycho": 4596,
      "sauce": 4597,
      "assignment": 4598,
      "colleague": 4599,
      "frequently": 4600,
      "disease": 4601,
      "hilarious": 4602,
      "appropriate": 4603,
      "orlando": 4604,
      "bid": 4605,
      "boun": 4606,
      "bound": 4607,
      "brain": 4608,
      "based": 4609,
      "ease": 4610,
      "fol": 4611,
      "gpa": 4612,
      "hig": 4613,
      "lam": 4614,
      "oted": 4615,
      "pant": 4616,
      "thru": 4617,
      "init": 4618,
      "income": 4619,
      "errand": 4620,
      "oups": 4621,
      "reaction": 4622,
      "enses": 4623,
      "iting": 4624,
      "som": 4625,
      "lego": 4626,
      "separ": 4627,
      "webs": 4628,
      "ades": 4629,
      "impossible": 4630,
      "neice": 4631,
      "nessed": 4632,
      "feat": 4633,
      "tist": 4634,
      "loc": 4635,
      "suv": 4636,
      "susp": 4637,
      "uncertain": 4638,
      "newborn": 4639,
      "sage": 4640,
      "yearold": 4641,
      "option": 4642,
      "backpack": 4643,
      "boost": 4644,
      "polic": 4645,
      "typic": 4646,
      "spoken": 4647,
      "ners": 4648,
      "litary": 4649,
      "interrup": 4650,
      "brake": 4651,
      "military": 4652,
      "curious": 4653,
      "essenti": 4654,
      "discu": 4655,
      "neighbour": 4656,
      "parties": 4657,
      "ipad": 4658,
      "sooner": 4659,
      "hubby": 4660,
      "understands": 4661,
      "crappy": 4662,
      "served": 4663,
      "cakes": 4664,
      "finishing": 4665,
      "failu": 4666,
      "treas": 4667,
      "troubles": 4668,
      "chances": 4669,
      "kitty": 4670,
      "clearance": 4671,
      "nieces": 4672,
      "patients": 4673,
      "decisions": 4674,
      "solid": 4675,
      "supporting": 4676,
      "aggravating": 4677,
      "appear": 4678,
      "compared": 4679,
      "witnessed": 4680,
      "reserv": 4681,
      "november": 4682,
      "ingredients": 4683,
      "highest": 4684,
      "3rd": 4685,
      "6th": 4686,
      "8th": 4687,
      "cti": 4688,
      "ctic": 4689,
      "dmv": 4690,
      "eve": 4691,
      "gle": 4692,
      "ican": 4693,
      "ians": 4694,
      "lower": 4695,
      "ns": 4696,
      "nine": 4697,
      "oops": 4698,
      "pity": 4699,
      "passes": 4700,
      "slice": 4701,
      "tun": 4702,
      "tshirt": 4703,
      "twins": 4704,
      "ville": 4705,
      "wings": 4706,
      "yan": 4707,
      "thus": 4708,
      "tore": 4709,
      "ency": 4710,
      "onions": 4711,
      "haved": 4712,
      "washer": 4713,
      "sore": 4714,
      "vegan": 4715,
      "youth": 4716,
      "leash": 4717,
      "aly": 4718,
      "chu": 4719,
      "tie": 4720,
      "bumped": 4721,
      "areas": 4722,
      "audi": 4723,
      "trag": 4724,
      "artment": 4725,
      "acle": 4726,
      "plants": 4727,
      "fold": 4728,
      "homes": 4729,
      "firm": 4730,
      "whom": 4731,
      "pretended": 4732,
      "appartment": 4733,
      "aggressive": 4734,
      "letters": 4735,
      "discount": 4736,
      "hahah": 4737,
      "cookie": 4738,
      "jud": 4739,
      "version": 4740,
      "expenses": 4741,
      "embarrased": 4742,
      "childrens": 4743,
      "charity": 4744,
      "lunches": 4745,
      "apartments": 4746,
      "piano": 4747,
      "warming": 4748,
      "tasty": 4749,
      "papers": 4750,
      "damaged": 4751,
      "texted": 4752,
      "teenage": 4753,
      "bothered": 4754,
      "center": 4755,
      "opportunities": 4756,
      "delayed": 4757,
      "hyped": 4758,
      "depends": 4759,
      "hamster": 4760,
      "pushing": 4761,
      "american": 4762,
      "crowded": 4763,
      "medication": 4764,
      "climbing": 4765,
      "achievement": 4766,
      "released": 4767,
      "transport": 4768,
      "smoothly": 4769,
      "zero": 4770,
      "slammed": 4771,
      "overwhelming": 4772,
      "touched": 4773,
      "government": 4774,
      "quarter": 4775,
      "aliens": 4776,
      "contract": 4777,
      "vegetable": 4778,
      "admire": 4779,
      "significant": 4780,
      "tattoo": 4781,
      "suggest": 4782,
      "customers": 4783,
      "tragic": 4784,
      "600": 4785,
      "70": 4786,
      "dru": 4787,
      "itor": 4788,
      "kay": 4789,
      "lst": 4790,
      "scra": 4791,
      "tit": 4792,
      "incident": 4793,
      "ert": 4794,
      "attemp": 4795,
      "react": 4796,
      "repor": 4797,
      "argue": 4798,
      "behaved": 4799,
      "owe": 4800,
      "secon": 4801,
      "sequ": 4802,
      "gear": 4803,
      "loaf": 4804,
      "hoped": 4805,
      "sue": 4806,
      "theyd": 4807,
      "exist": 4808,
      "active": 4809,
      "canada": 4810,
      "devest": 4811,
      "groups": 4812,
      "affect": 4813,
      "makeup": 4814,
      "homeschool": 4815,
      "careless": 4816,
      "confu": 4817,
      "overnight": 4818,
      "fig": 4819,
      "mony": 4820,
      "cheaper": 4821,
      "ames": 4822,
      "tub": 4823,
      "shoot": 4824,
      "surround": 4825,
      "dried": 4826,
      "ization": 4827,
      "momma": 4828,
      "stays": 4829,
      "runs": 4830,
      "eats": 4831,
      "duck": 4832,
      "forgotten": 4833,
      "healing": 4834,
      "handed": 4835,
      "curren": 4836,
      "stops": 4837,
      "presented": 4838,
      "gene": 4839,
      "spoiled": 4840,
      "listened": 4841,
      "generally": 4842,
      "shortly": 4843,
      "competitive": 4844,
      "ghosted": 4845,
      "crimin": 4846,
      "wooded": 4847,
      "bench": 4848,
      "eggplant": 4849,
      "bottom": 4850,
      "slee": 4851,
      "reviews": 4852,
      "addiction": 4853,
      "horribly": 4854,
      "babysitter": 4855,
      "responsibilities": 4856,
      "softball": 4857,
      "capable": 4858,
      "cracked": 4859,
      "continues": 4860,
      "totaled": 4861,
      "nightmares": 4862,
      "routine": 4863,
      "convinced": 4864,
      "betray": 4865,
      "busted": 4866,
      "geez": 4867,
      "flavor": 4868,
      "announced": 4869,
      "rejected": 4870,
      "brownies": 4871,
      "impact": 4872,
      "alternative": 4873,
      "complicated": 4874,
      "individ": 4875,
      "shirts": 4876,
      "informed": 4877,
      "website": 4878,
      "seconds": 4879,
      "devestated": 4880,
      "34": 4881,
      "aint": 4882,
      "mur": 4883,
      "oly": 4884,
      "pup": 4885,
      "rr": 4886,
      "spre": 4887,
      "sche": 4888,
      "van": 4889,
      "yy": 4890,
      "tha": 4891,
      "thin": 4892,
      "inlaws": 4893,
      "asap": 4894,
      "meals": 4895,
      "hamas": 4896,
      "becomes": 4897,
      "behold": 4898,
      "chine": 4899,
      "bump": 4900,
      "costu": 4901,
      "irresponsible": 4902,
      "shri": 4903,
      "detail": 4904,
      "grind": 4905,
      "opin": 4906,
      "joining": 4907,
      "harm": 4908,
      "afterward": 4909,
      "max": 4910,
      "woo": 4911,
      "disci": 4912,
      "belief": 4913,
      "iphone": 4914,
      "vacations": 4915,
      "naked": 4916,
      "classroom": 4917,
      "blowing": 4918,
      "countries": 4919,
      "craft": 4920,
      "example": 4921,
      "pasta": 4922,
      "descri": 4923,
      "syn": 4924,
      "juice": 4925,
      "freaking": 4926,
      "parks": 4927,
      "reception": 4928,
      "experiences": 4929,
      "weights": 4930,
      "photograph": 4931,
      "ahh": 4932,
      "spoil": 4933,
      "north": 4934,
      "ooo": 4935,
      "loudly": 4936,
      "scratching": 4937,
      "screwed": 4938,
      "pancreat": 4939,
      "nervewracking": 4940,
      "acceptance": 4941,
      "preparation": 4942,
      "bahamas": 4943,
      "connected": 4944,
      "pleasantly": 4945,
      "motivation": 4946,
      "distracted": 4947,
      "frightening": 4948,
      "reached": 4949,
      "ignore": 4950,
      "skiing": 4951,
      "addict": 4952,
      "filling": 4953,
      "repeat": 4954,
      "repeated": 4955,
      "rupt": 4956,
      "pointed": 4957,
      "continued": 4958,
      "trailer": 4959,
      "gluten": 4960,
      "bittersweet": 4961,
      "participate": 4962,
      "sneak": 4963,
      "shattered": 4964,
      "language": 4965,
      "squirrel": 4966,
      "chicago": 4967,
      "failure": 4968,
      "kayaking": 4969,
      "chinese": 4970,
      "discipl": 4971,
      "1st": 4972,
      "4th": 4973,
      "baking": 4974,
      "cine": 4975,
      "dic": 4976,
      "dess": 4977,
      "fits": 4978,
      "jit": 4979,
      "james": 4980,
      "lant": 4981,
      "mri": 4982,
      "ng": 4983,
      "pal": 4984,
      "patch": 4985,
      "rar": 4986,
      "slap": 4987,
      "zard": 4988,
      "retail": 4989,
      "rehab": 4990,
      "thetic": 4991,
      "melt": 4992,
      "edom": 4993,
      "beating": 4994,
      "lemon": 4995,
      "ids": 4996,
      "adn": 4997,
      "rolled": 4998,
      "ceiling": 4999,
      "aret": 5000,
      "pest": 5001,
      "hero": 5002,
      "workplace": 5003,
      "shine": 5004,
      "placing": 5005,
      "furi": 5006,
      "yearbook": 5007,
      "focused": 5008,
      "bosses": 5009,
      "surely": 5010,
      "homemade": 5011,
      "mug": 5012,
      "spag": 5013,
      "evicted": 5014,
      "mag": 5015,
      "file": 5016,
      "ignor": 5017,
      "fulltime": 5018,
      "lley": 5019,
      "testing": 5020,
      "mercial": 5021,
      "ashed": 5022,
      "grandmas": 5023,
      "daddy": 5024,
      "ballet": 5025,
      "guessing": 5026,
      "cris": 5027,
      "realizing": 5028,
      "handy": 5029,
      "handful": 5030,
      "slide": 5031,
      "attending": 5032,
      "recei": 5033,
      "trees": 5034,
      "partners": 5035,
      "streets": 5036,
      "stressing": 5037,
      "stephen": 5038,
      "deadline": 5039,
      "figures": 5040,
      "effe": 5041,
      "possibility": 5042,
      "diabet": 5043,
      "celebrated": 5044,
      "celebrating": 5045,
      "boarding": 5046,
      "lawnmower": 5047,
      "complained": 5048,
      "strangers": 5049,
      "goldfish": 5050,
      "popular": 5051,
      "yoga": 5052,
      "hype": 5053,
      "repairs": 5054,
      "sharing": 5055,
      "horrifying": 5056,
      "suprised": 5057,
      "seafood": 5058,
      "gorge": 5059,
      "belongings": 5060,
      "including": 5061,
      "betrayed": 5062,
      "wheels": 5063,
      "dedicated": 5064,
      "zipper": 5065,
      "spirit": 5066,
      "umbrella": 5067,
      "wolf": 5068,
      "sketchy": 5069,
      "folks": 5070,
      "olymp": 5071,
      "spaghet": 5072,
      "80": 5073,
      "bare": 5074,
      "bble": 5075,
      "cage": 5076,
      "dor": 5077,
      "dive": 5078,
      "dread": 5079,
      "ego": 5080,
      "ike": 5081,
      "jacket": 5082,
      "ome": 5083,
      "osing": 5084,
      "pto": 5085,
      "pas": 5086,
      "scor": 5087,
      "uk": 5088,
      "inlaw": 5089,
      "recovered": 5090,
      "theart": 5091,
      "stable": 5092,
      "states": 5093,
      "bean": 5094,
      "heaven": 5095,
      "lease": 5096,
      "ides": 5097,
      "sess": 5098,
      "rice": 5099,
      "chase": 5100,
      "kee": 5101,
      "lip": 5102,
      "neath": 5103,
      "tips": 5104,
      "bulle": 5105,
      "hop": 5106,
      "upstairs": 5107,
      "accused": 5108,
      "deck": 5109,
      "acked": 5110,
      "preschool": 5111,
      "greate": 5112,
      "mum": 5113,
      "cares": 5114,
      "gull": 5115,
      "cons": 5116,
      "console": 5117,
      "fav": 5118,
      "owning": 5119,
      "ideas": 5120,
      "prison": 5121,
      "startled": 5122,
      "quiz": 5123,
      "mans": 5124,
      "needing": 5125,
      "payments": 5126,
      "underneath": 5127,
      "cloud": 5128,
      "standard": 5129,
      "merced": 5130,
      "anger": 5131,
      "reschedu": 5132,
      "brea": 5133,
      "contacted": 5134,
      "classmates": 5135,
      "skate": 5136,
      "skip": 5137,
      "lightning": 5138,
      "sweetheart": 5139,
      "fathers": 5140,
      "shaking": 5141,
      "shared": 5142,
      "checkout": 5143,
      "eachother": 5144,
      "rainy": 5145,
      "2018": 5146,
      "fallen": 5147,
      "burgers": 5148,
      "lung": 5149,
      "halfway": 5150,
      "darn": 5151,
      "musical": 5152,
      "basis": 5153,
      "aunting": 5154,
      "starving": 5155,
      "berry": 5156,
      "drunken": 5157,
      "flipped": 5158,
      "fireworks": 5159,
      "celebration": 5160,
      "panic": 5161,
      "golden": 5162,
      "mainly": 5163,
      "cafe": 5164,
      "avoided": 5165,
      "popcorn": 5166,
      "loaded": 5167,
      "transplant": 5168,
      "carrying": 5169,
      "techno": 5170,
      "suffering": 5171,
      "points": 5172,
      "mixed": 5173,
      "embarassing": 5174,
      "channel": 5175,
      "mentioned": 5176,
      "blanket": 5177,
      "slightly": 5178,
      "potential": 5179,
      "potatoes": 5180,
      "opinion": 5181,
      "spaghetti": 5182,
      "mercedes": 5183,
      "23": 5184,
      "austr": 5185,
      "awoke": 5186,
      "bye": 5187,
      "cture": 5188,
      "cents": 5189,
      "dough": 5190,
      "gie": 5191,
      "hond": 5192,
      "lers": 5193,
      "nfl": 5194,
      "pm": 5195,
      "phar": 5196,
      "phas": 5197,
      "pine": 5198,
      "sour": 5199,
      "scu": 5200,
      "swall": 5201,
      "twent": 5202,
      "injury": 5203,
      "anoid": 5204,
      "oured": 5205,
      "toma": 5206,
      "refri": 5207,
      "asia": 5208,
      "hah": 5209,
      "beside": 5210,
      "hectic": 5211,
      "owl": 5212,
      "owed": 5213,
      "forgetting": 5214,
      "outfit": 5215,
      "feb": 5216,
      "tian": 5217,
      "ustry": 5218,
      "elated": 5219,
      "nival": 5220,
      "anyways": 5221,
      "tears": 5222,
      "grace": 5223,
      "carnival": 5224,
      "prevent": 5225,
      "industry": 5226,
      "comment": 5227,
      "perspec": 5228,
      "couldve": 5229,
      "kiddos": 5230,
      "projects": 5231,
      "recall": 5232,
      "forest": 5233,
      "ils": 5234,
      "bran": 5235,
      "brit": 5236,
      "surreal": 5237,
      "gled": 5238,
      "paired": 5239,
      "sadden": 5240,
      "cutest": 5241,
      "clus": 5242,
      "wished": 5243,
      "collection": 5244,
      "paranoid": 5245,
      "meds": 5246,
      "gerator": 5247,
      "earned": 5248,
      "desper": 5249,
      "draft": 5250,
      "sweetest": 5251,
      "apri": 5252,
      "mature": 5253,
      "freedom": 5254,
      "bars": 5255,
      "sundays": 5256,
      "lawy": 5257,
      "spooked": 5258,
      "walls": 5259,
      "smaller": 5260,
      "safety": 5261,
      "scri": 5262,
      "swimsuit": 5263,
      "searched": 5264,
      "impression": 5265,
      "hello": 5266,
      "occur": 5267,
      "ferrar": 5268,
      "batter": 5269,
      "devastating": 5270,
      "loyalty": 5271,
      "thrift": 5272,
      "punched": 5273,
      "washed": 5274,
      "rushing": 5275,
      "fiancee": 5276,
      "correctly": 5277,
      "loads": 5278,
      "shark": 5279,
      "england": 5280,
      "proposal": 5281,
      "inspiring": 5282,
      "racing": 5283,
      "racco": 5284,
      "macs": 5285,
      "buddies": 5286,
      "hiding": 5287,
      "release": 5288,
      "software": 5289,
      "econom": 5290,
      "hundreds": 5291,
      "convince": 5292,
      "ceremony": 5293,
      "convenient": 5294,
      "dedication": 5295,
      "malfunction": 5296,
      "channels": 5297,
      "jamas": 5298,
      "directly": 5299,
      "japan": 5300,
      "introduced": 5301,
      "independent": 5302,
      "google": 5303,
      "cigaret": 5304,
      "essentials": 5305,
      "transportation": 5306,
      "title": 5307,
      "gorgeous": 5308,
      "greatest": 5309,
      "technology": 5310,
      "austral": 5311,
      "pharmac": 5312,
      "twenty": 5313,
      "refrigerator": 5314,
      "ais": 5315,
      "abus": 5316,
      "cough": 5317,
      "cite": 5318,
      "cpa": 5319,
      "dreading": 5320,
      "mous": 5321,
      "mirr": 5322,
      "ron": 5323,
      "sam": 5324,
      "site": 5325,
      "tt": 5326,
      "xbox": 5327,
      "zo": 5328,
      "thie": 5329,
      "insecure": 5330,
      "remo": 5331,
      "remain": 5332,
      "thed": 5333,
      "metal": 5334,
      "ors": 5335,
      "staf": 5336,
      "anded": 5337,
      "arc": 5338,
      "solo": 5339,
      "beers": 5340,
      "weed": 5341,
      "rooting": 5342,
      "cky": 5343,
      "coop": 5344,
      "covers": 5345,
      "copy": 5346,
      "worn": 5347,
      "unbelievable": 5348,
      "gots": 5349,
      "extension": 5350,
      "excite": 5351,
      "happend": 5352,
      "happily": 5353,
      "happiest": 5354,
      "options": 5355,
      "seek": 5356,
      "lasts": 5357,
      "backing": 5358,
      "ours": 5359,
      "wave": 5360,
      "stone": 5361,
      "gum": 5362,
      "spill": 5363,
      "spain": 5364,
      "prove": 5365,
      "puts": 5366,
      "dig": 5367,
      "dio": 5368,
      "selfish": 5369,
      "mainten": 5370,
      "mansion": 5371,
      "shoulder": 5372,
      "shouldve": 5373,
      "cities": 5374,
      "foreign": 5375,
      "rub": 5376,
      "finds": 5377,
      "page": 5378,
      "settled": 5379,
      "cult": 5380,
      "cudd": 5381,
      "parrot": 5382,
      "marke": 5383,
      "biting": 5384,
      "steam": 5385,
      "resid": 5386,
      "estate": 5387,
      "everyones": 5388,
      "craig": 5389,
      "design": 5390,
      "flown": 5391,
      "appet": 5392,
      "master": 5393,
      "asks": 5394,
      "healthier": 5395,
      "cruel": 5396,
      "rented": 5397,
      "burst": 5398,
      "chargers": 5399,
      "ps4": 5400,
      "ista": 5401,
      "compliment": 5402,
      "boxing": 5403,
      "ankle": 5404,
      "holds": 5405,
      "command": 5406,
      "rings": 5407,
      "smelly": 5408,
      "distur": 5409,
      "drag": 5410,
      "installed": 5411,
      "searching": 5412,
      "eager": 5413,
      "sticky": 5414,
      "investment": 5415,
      "kicking": 5416,
      "viol": 5417,
      "tempor": 5418,
      "productive": 5419,
      "personality": 5420,
      "techni": 5421,
      "specifically": 5422,
      "reliable": 5423,
      "toddlers": 5424,
      "shifts": 5425,
      "stubborn": 5426,
      "drawing": 5427,
      "trauma": 5428,
      "reminiscing": 5429,
      "aggravated": 5430,
      "companies": 5431,
      "flirt": 5432,
      "bachelors": 5433,
      "korea": 5434,
      "candidate": 5435,
      "declined": 5436,
      "original": 5437,
      "recognize": 5438,
      "individual": 5439,
      "photographs": 5440,
      "furiating": 5441,
      "maggots": 5442,
      "reschedule": 5443,
      "ferrari": 5444,
      "mirror": 5445,
      "bree": 5446,
      "cin": 5447,
      "dall": 5448,
      "ew": 5449,
      "east": 5450,
      "ggling": 5451,
      "hr": 5452,
      "ht": 5453,
      "hat": 5454,
      "hass": 5455,
      "hip": 5456,
      "ib": 5457,
      "igu": 5458,
      "mont": 5459,
      "nau": 5460,
      "ored": 5461,
      "rally": 5462,
      "rink": 5463,
      "snap": 5464,
      "tank": 5465,
      "zing": 5466,
      "inch": 5467,
      "toms": 5468,
      "repay": 5469,
      "represent": 5470,
      "itd": 5471,
      "itable": 5472,
      "artist": 5473,
      "kees": 5474,
      "imate": 5475,
      "outdoor": 5476,
      "fees": 5477,
      "coin": 5478,
      "colon": 5479,
      "esca": 5480,
      "terms": 5481,
      "els": 5482,
      "goodbye": 5483,
      "trunk": 5484,
      "shred": 5485,
      "cans": 5486,
      "carriage": 5487,
      "foster": 5488,
      "forec": 5489,
      "comics": 5490,
      "affair": 5491,
      "raw": 5492,
      "muse": 5493,
      "ston": 5494,
      "gues": 5495,
      "confe": 5496,
      "consequ": 5497,
      "nightlight": 5498,
      "evid": 5499,
      "dip": 5500,
      "whoever": 5501,
      "familys": 5502,
      "tional": 5503,
      "agna": 5504,
      "chihua": 5505,
      "bris": 5506,
      "turbul": 5507,
      "bands": 5508,
      "mommy": 5509,
      "discover": 5510,
      "hug": 5511,
      "humble": 5512,
      "visits": 5513,
      "babysitting": 5514,
      "classmate": 5515,
      "sleeps": 5516,
      "drew": 5517,
      "conference": 5518,
      "handling": 5519,
      "spect": 5520,
      "10k": 5521,
      "matches": 5522,
      "annoy": 5523,
      "barista": 5524,
      "slapped": 5525,
      "burri": 5526,
      "cutting": 5527,
      "reminder": 5528,
      "mailbox": 5529,
      "italy": 5530,
      "spook": 5531,
      "smelling": 5532,
      "unique": 5533,
      "computers": 5534,
      "effor": 5535,
      "loyment": 5536,
      "starbucks": 5537,
      "beaten": 5538,
      "30th": 5539,
      "banks": 5540,
      "brace": 5541,
      "dressing": 5542,
      "bats": 5543,
      "battery": 5544,
      "answered": 5545,
      "hurricanes": 5546,
      "robber": 5547,
      "complaining": 5548,
      "acceptable": 5549,
      "jerks": 5550,
      "organization": 5551,
      "practically": 5552,
      "divorced": 5553,
      "sharp": 5554,
      "vibe": 5555,
      "rewarded": 5556,
      "climb": 5557,
      "climate": 5558,
      "assumed": 5559,
      "assuming": 5560,
      "horrified": 5561,
      "grill": 5562,
      "lasagna": 5563,
      "cockroach": 5564,
      "convenience": 5565,
      "gathering": 5566,
      "overwhelmed": 5567,
      "mosquitos": 5568,
      "korean": 5569,
      "butterflies": 5570,
      "torian": 5571,
      "transferred": 5572,
      "policy": 5573,
      "typically": 5574,
      "reservations": 5575,
      "yankees": 5576,
      "currency": 5577,
      "discipline": 5578,
      "receiving": 5579,
      "honda": 5580,
      "lawyer": 5581,
      "abusive": 5582,
      "excitement": 5583,
      "culture": 5584,
      "appetite": 5585,
      "dallas": 5586,
      "turbulence": 5587,
      "5k": 5588,
      "5th": 5589,
      "60s": 5590,
      "ax": 5591,
      "bay": 5592,
      "bicy": 5593,
      "cate": 5594,
      "dair": 5595,
      "dates": 5596,
      "fif": 5597,
      "imed": 5598,
      "ium": 5599,
      "lined": 5600,
      "pc": 5601,
      "rang": 5602,
      "sake": 5603,
      "slist": 5604,
      "vard": 5605,
      "waters": 5606,
      "zzy": 5607,
      "intru": 5608,
      "ature": 5609,
      "encour": 5610,
      "encourage": 5611,
      "ordin": 5612,
      "orange": 5613,
      "eding": 5614,
      "edic": 5615,
      "lly": 5616,
      "arily": 5617,
      "alli": 5618,
      "web": 5619,
      "added": 5620,
      "verse": 5621,
      "nel": 5622,
      "neur": 5623,
      "geor": 5624,
      "tied": 5625,
      "peel": 5626,
      "antsy": 5627,
      "shee": 5628,
      "author": 5629,
      "newsp": 5630,
      "fume": 5631,
      "predic": 5632,
      "romantic": 5633,
      "illo": 5634,
      "icient": 5635,
      "boom": 5636,
      "pole": 5637,
      "harvard": 5638,
      "raising": 5639,
      "mutual": 5640,
      "consist": 5641,
      "overslept": 5642,
      "owners": 5643,
      "procr": 5644,
      "publ": 5645,
      "puzz": 5646,
      "whilst": 5647,
      "queen": 5648,
      "trim": 5649,
      "monster": 5650,
      "russi": 5651,
      "whys": 5652,
      "paw": 5653,
      "pajamas": 5654,
      "roomate": 5655,
      "ipment": 5656,
      "persons": 5657,
      "000": 5658,
      "nacho": 5659,
      "minor": 5660,
      "skirt": 5661,
      "dropping": 5662,
      "versal": 5663,
      "freezer": 5664,
      "snu": 5665,
      "burden": 5666,
      "coverage": 5667,
      "italian": 5668,
      "universal": 5669,
      "promises": 5670,
      "valedic": 5671,
      "warri": 5672,
      "blocking": 5673,
      "elev": 5674,
      "arriving": 5675,
      "dieting": 5676,
      "generous": 5677,
      "smells": 5678,
      "anese": 5679,
      "distant": 5680,
      "instantly": 5681,
      "bumper": 5682,
      "objects": 5683,
      "texts": 5684,
      "secretly": 5685,
      "salary": 5686,
      "switching": 5687,
      "porsche": 5688,
      "wrecking": 5689,
      "eagerly": 5690,
      "leader": 5691,
      "adults": 5692,
      "humanity": 5693,
      "kittens": 5694,
      "sweating": 5695,
      "achieved": 5696,
      "adoption": 5697,
      "rotting": 5698,
      "struck": 5699,
      "skinny": 5700,
      "instructions": 5701,
      "belonged": 5702,
      "vomiting": 5703,
      "chainsaw": 5704,
      "ugly": 5705,
      "entertain": 5706,
      "challenges": 5707,
      "cabin": 5708,
      "claim": 5709,
      "biology": 5710,
      "thorough": 5711,
      "target": 5712,
      "equipment": 5713,
      "traumatic": 5714,
      "fruit": 5715,
      "remained": 5716,
      "pumpkin": 5717,
      "democr": 5718,
      "psychology": 5719,
      "tuna": 5720,
      "genetic": 5721,
      "spread": 5722,
      "dessert": 5723,
      "diabetes": 5724,
      "phase": 5725,
      "pineapple": 5726,
      "australia": 5727,
      "zomb": 5728,
      "craigslist": 5729,
      "hassle": 5730,
      "museum": 5731,
      "evidence": 5732,
      "dairy": 5733,
      "newspaper": 5734,
      "procrast": 5735,
      "valedictorian": 5736,
      "ave": 5737,
      "csection": 5738,
      "eh": 5739,
      "eed": 5740,
      "glo": 5741,
      "gang": 5742,
      "ilot": 5743,
      "kis": 5744,
      "nn": 5745,
      "pon": 5746,
      "punk": 5747,
      "poured": 5748,
      "rural": 5749,
      "sang": 5750,
      "ured": 5751,
      "vit": 5752,
      "vity": 5753,
      "wrest": 5754,
      "zok": 5755,
      "inher": 5756,
      "ints": 5757,
      "intell": 5758,
      "inappropriate": 5759,
      "towel": 5760,
      "reno": 5761,
      "removed": 5762,
      "asp": 5763,
      "aston": 5764,
      "wasting": 5765,
      "ario": 5766,
      "begging": 5767,
      "heshe": 5768,
      "goss": 5769,
      "lean": 5770,
      "semi": 5771,
      "alge": 5772,
      "aline": 5773,
      "weigh": 5774,
      "outdoors": 5775,
      "loom": 5776,
      "dom": 5777,
      "bushes": 5778,
      "ented": 5779,
      "hoo": 5780,
      "button": 5781,
      "heres": 5782,
      "autop": 5783,
      "arts": 5784,
      "carbs": 5785,
      "comb": 5786,
      "compassionate": 5787,
      "commercial": 5788,
      "icles": 5789,
      "greatly": 5790,
      "rav": 5791,
      "stocked": 5792,
      "offs": 5793,
      "fulfilling": 5794,
      "causes": 5795,
      "sibling": 5796,
      "quilt": 5797,
      "chemic": 5798,
      "inton": 5799,
      "sitive": 5800,
      "downtown": 5801,
      "interstate": 5802,
      "kindness": 5803,
      "pathetic": 5804,
      "display": 5805,
      "disagree": 5806,
      "grandson": 5807,
      "awake": 5808,
      "cleaner": 5809,
      "breast": 5810,
      "ducks": 5811,
      "interviewer": 5812,
      "interviewing": 5813,
      "cring": 5814,
      "cooks": 5815,
      "dram": 5816,
      "pizzas": 5817,
      "deals": 5818,
      "spends": 5819,
      "specially": 5820,
      "curb": 5821,
      "strzok": 5822,
      "ggies": 5823,
      "rains": 5824,
      "presenting": 5825,
      "stormed": 5826,
      "storming": 5827,
      "sunny": 5828,
      "landing": 5829,
      "burnt": 5830,
      "burning": 5831,
      "soci": 5832,
      "lonesome": 5833,
      "attended": 5834,
      "decades": 5835,
      "mailman": 5836,
      "threat": 5837,
      "scores": 5838,
      "approval": 5839,
      "destination": 5840,
      "poorly": 5841,
      "solution": 5842,
      "costco": 5843,
      "awwww": 5844,
      "disneyworld": 5845,
      "successfully": 5846,
      "competent": 5847,
      "occup": 5848,
      "miscarriage": 5849,
      "panama": 5850,
      "performed": 5851,
      "gunshots": 5852,
      "increasing": 5853,
      "humans": 5854,
      "further": 5855,
      "taxi": 5856,
      "5000": 5857,
      "diagnosis": 5858,
      "longest": 5859,
      "improving": 5860,
      "cile": 5861,
      "sharks": 5862,
      "refuse": 5863,
      "refuses": 5864,
      "bullied": 5865,
      "arguing": 5866,
      "transmission": 5867,
      "engage": 5868,
      "recipes": 5869,
      "skipped": 5870,
      "relig": 5871,
      "particularly": 5872,
      "circle": 5873,
      "suffer": 5874,
      "shadow": 5875,
      "sweaty": 5876,
      "humiliating": 5877,
      "transit": 5878,
      "allergy": 5879,
      "autoimmune": 5880,
      "route": 5881,
      "soooo": 5882,
      "cockroaches": 5883,
      "brief": 5884,
      "meaningful": 5885,
      "decorated": 5886,
      "companion": 5887,
      "claimed": 5888,
      "blankets": 5889,
      "announce": 5890,
      "communicate": 5891,
      "scenario": 5892,
      "inspection": 5893,
      "submitted": 5894,
      "miracle": 5895,
      "swerve": 5896,
      "errands": 5897,
      "brakes": 5898,
      "confused": 5899,
      "sleepo": 5900,
      "murder": 5901,
      "repeatedly": 5902,
      "saddened": 5903,
      "batteries": 5904,
      "escape": 5905,
      "chihuahua": 5906,
      "spooky": 5907,
      "efforts": 5908,
      "intruder": 5909,
      "democrats": 5910,
      "intellig": 5911,
      "gossip": 5912,
      "algebra": 5913,
      "autopilot": 5914,
      "chemicals": 5915,
      "28": 5916,
      "29": 5917,
      "cil": 5918,
      "crank": 5919,
      "casser": 5920,
      "eyed": 5921,
      "fy": 5922,
      "hn": 5923,
      "honey": 5924,
      "jar": 5925,
      "ka": 5926,
      "lou": 5927,
      "ooh": 5928,
      "pin": 5929,
      "rs": 5930,
      "wer": 5931,
      "wis": 5932,
      "wide": 5933,
      "woken": 5934,
      "zen": 5935,
      "thy": 5936,
      "thou": 5937,
      "inated": 5938,
      "insist": 5939,
      "infuriating": 5940,
      "rex": 5941,
      "reas": 5942,
      "remor": 5943,
      "repaired": 5944,
      "sting": 5945,
      "island": 5946,
      "arch": 5947,
      "arant": 5948,
      "beef": 5949,
      "gods": 5950,
      "lex": 5951,
      "alter": 5952,
      "chunk": 5953,
      "adren": 5954,
      "address": 5955,
      "adem": 5956,
      "rome": 5957,
      "domin": 5958,
      "hoard": 5959,
      "sume": 5960,
      "unnecessary": 5961,
      "upside": 5962,
      "upsets": 5963,
      "trapped": 5964,
      "actors": 5965,
      "academ": 5966,
      "shor": 5967,
      "shout": 5968,
      "carib": 5969,
      "percent": 5970,
      "affl": 5971,
      "boston": 5972,
      "overcharged": 5973,
      "spin": 5974,
      "bleeding": 5975,
      "maid": 5976,
      "famous": 5977,
      "partying": 5978,
      "appalled": 5979,
      "rum": 5980,
      "ruction": 5981,
      "chips": 5982,
      "mpy": 5983,
      "aweful": 5984,
      "dissa": 5985,
      "disrespectful": 5986,
      "cling": 5987,
      "clock": 5988,
      "remeber": 5989,
      "creative": 5990,
      "trap": 5991,
      "realistic": 5992,
      "resses": 5993,
      "jet": 5994,
      "ballo": 5995,
      "earning": 5996,
      "scariest": 5997,
      "mornings": 5998,
      "craz": 5999,
      "enjoys": 6000,
      "closest": 6001,
      "desire": 6002,
      "juggle": 6003,
      "healed": 6004,
      "heartbreaking": 6005,
      "camper": 6006,
      "bark": 6007,
      "reasonable": 6008,
      "interests": 6009,
      "charging": 6010,
      "bunnies": 6011,
      "midterm": 6012,
      "nug": 6013,
      "ahhh": 6014,
      "musician": 6015,
      "scout": 6016,
      "keyboard": 6017,
      "devoted": 6018,
      "denied": 6019,
      "legal": 6020,
      "answering": 6021,
      "2000s": 6022,
      "salt": 6023,
      "sticking": 6024,
      "panicked": 6025,
      "shameful": 6026,
      "patio": 6027,
      "thrill": 6028,
      "pulls": 6029,
      "feedback": 6030,
      "slip": 6031,
      "investig": 6032,
      "deeply": 6033,
      "volley": 6034,
      "fantasy": 6035,
      "protein": 6036,
      "conversations": 6037,
      "motivate": 6038,
      "commitment": 6039,
      "technic": 6040,
      "periods": 6041,
      "kissing": 6042,
      "admitted": 6043,
      "trophy": 6044,
      "dishwasher": 6045,
      "politic": 6046,
      "matern": 6047,
      "pyrex": 6048,
      "insanely": 6049,
      "hallway": 6050,
      "occasionally": 6051,
      "nails": 6052,
      "flirting": 6053,
      "antibio": 6054,
      "tearing": 6055,
      "registered": 6056,
      "japanese": 6057,
      "candidates": 6058,
      "blessings": 6059,
      "hostel": 6060,
      "counseling": 6061,
      "influenced": 6062,
      "treasure": 6063,
      "judg": 6064,
      "vegetables": 6065,
      "figuring": 6066,
      "ikea": 6067,
      "doughnuts": 6068,
      "british": 6069,
      "april": 6070,
      "aisle": 6071,
      "marketing": 6072,
      "montreal": 6073,
      "vibes": 6074,
      "elevator": 6075,
      "cranky": 6076,
      "remorse": 6077,
      "caribbean": 6078,
      "volleyball": 6079,
      "antibiotic": 6080,
      "250": 6081,
      "99": 6082,
      "baffl": 6083,
      "dat": 6084,
      "dim": 6085,
      "dun": 6086,
      "fans": 6087,
      "gall": 6088,
      "hous": 6089,
      "hates": 6090,
      "iant": 6091,
      "ility": 6092,
      "ja": 6093,
      "jan": 6094,
      "lame": 6095,
      "mmy": 6096,
      "mowing": 6097,
      "nab": 6098,
      "nite": 6099,
      "naught": 6100,
      "obed": 6101,
      "pier": 6102,
      "rust": 6103,
      "sits": 6104,
      "sac": 6105,
      "scan": 6106,
      "snee": 6107,
      "tan": 6108,
      "tack": 6109,
      "ute": 6110,
      "zes": 6111,
      "topping": 6112,
      "ret": 6113,
      "reall": 6114,
      "relive": 6115,
      "enra": 6116,
      "meg": 6117,
      "lliant": 6118,
      "stare": 6119,
      "behaving": 6120,
      "goin": 6121,
      "whis": 6122,
      "sey": 6123,
      "ripping": 6124,
      "ambul": 6125,
      "lion": 6126,
      "liqu": 6127,
      "lizard": 6128,
      "roo": 6129,
      "tifying": 6130,
      "lover": 6131,
      "docile": 6132,
      "notified": 6133,
      "entit": 6134,
      "entering": 6135,
      "aren": 6136,
      "hook": 6137,
      "mot": 6138,
      "moder": 6139,
      "irs": 6140,
      "worms": 6141,
      "unlocked": 6142,
      "unusual": 6143,
      "unfamiliar": 6144,
      "elity": 6145,
      "herbs": 6146,
      "aug": 6147,
      "tras": 6148,
      "tracking": 6149,
      "exha": 6150,
      "fuel": 6151,
      "preseason": 6152,
      "indic": 6153,
      "opens": 6154,
      "jogging": 6155,
      "commu": 6156,
      "perfume": 6157,
      "gator": 6158,
      "chosen": 6159,
      "posed": 6160,
      "harsh": 6161,
      "mud": 6162,
      "consc": 6163,
      "contrac": 6164,
      "owns": 6165,
      "puke": 6166,
      "pudd": 6167,
      "broad": 6168,
      "digest": 6169,
      "household": 6170,
      "tless": 6171,
      "triple": 6172,
      "lifestyle": 6173,
      "stumbled": 6174,
      "chewed": 6175,
      "tucked": 6176,
      "payed": 6177,
      "cube": 6178,
      "disheart": 6179,
      "collecting": 6180,
      "rooms": 6181,
      "surprises": 6182,
      "jets": 6183,
      "hugged": 6184,
      "sickened": 6185,
      "horn": 6186,
      "diner": 6187,
      "greece": 6188,
      "roadkill": 6189,
      "massage": 6190,
      "ansion": 6191,
      "courses": 6192,
      "expansion": 6193,
      "corrupt": 6194,
      "snuck": 6195,
      "managers": 6196,
      "trainer": 6197,
      "bunny": 6198,
      "bungee": 6199,
      "prized": 6200,
      "christian": 6201,
      "messaging": 6202,
      "uniform": 6203,
      "promising": 6204,
      "jumpscares": 6205,
      "extended": 6206,
      "crypto": 6207,
      "arrival": 6208,
      "costs": 6209,
      "dedu": 6210,
      "services": 6211,
      "millen": 6212,
      "nursed": 6213,
      "sensitive": 6214,
      "planted": 6215,
      "spiderman": 6216,
      "investing": 6217,
      "signs": 6218,
      "saturdays": 6219,
      "replacement": 6220,
      "organic": 6221,
      "dryer": 6222,
      "refusing": 6223,
      "therapist": 6224,
      "25th": 6225,
      "rats": 6226,
      "bully": 6227,
      "campus": 6228,
      "officially": 6229,
      "brutal": 6230,
      "circu": 6231,
      "politics": 6232,
      "improvement": 6233,
      "jackpot": 6234,
      "requires": 6235,
      "steaks": 6236,
      "banana": 6237,
      "brilliant": 6238,
      "compete": 6239,
      "cereal": 6240,
      "antique": 6241,
      "infected": 6242,
      "excuses": 6243,
      "explore": 6244,
      "mosquitoes": 6245,
      "assignments": 6246,
      "washington": 6247,
      "dirtbike": 6248,
      "massive": 6249,
      "plumber": 6250,
      "grumpy": 6251,
      "traditions": 6252,
      "renewed": 6253,
      "critters": 6254,
      "false": 6255,
      "karate": 6256,
      "cartoons": 6257,
      "strawberry": 6258,
      "doomed": 6259,
      "lamp": 6260,
      "legos": 6261,
      "shrimp": 6262,
      "effects": 6263,
      "olympic": 6264,
      "sessions": 6265,
      "keeper": 6266,
      "perspective": 6267,
      "pharmacy": 6268,
      "disturbing": 6269,
      "iguana": 6270,
      "nause": 6271,
      "consequences": 6272,
      "bicycle": 6273,
      "warriors": 6274,
      "thoroughly": 6275,
      "baffled": 6276,
      "naughty": 6277,
      "enraged": 6278,
      "conscious": 6279,
      "26": 6280,
      "aire": 6281,
      "bou": 6282,
      "cd": 6283,
      "cad": 6284,
      "ckets": 6285,
      "dan": 6286,
      "eli": 6287,
      "eff": 6288,
      "iam": 6289,
      "ili": 6290,
      "kim": 6291,
      "lph": 6292,
      "lates": 6293,
      "mama": 6294,
      "nb": 6295,
      "otic": 6296,
      "pse": 6297,
      "pace": 6298,
      "sions": 6299,
      "uti": 6300,
      "uary": 6301,
      "wrist": 6302,
      "thirty": 6303,
      "inf": 6304,
      "inev": 6305,
      "inted": 6306,
      "insult": 6307,
      "infant": 6308,
      "incorrect": 6309,
      "intuition": 6310,
      "tony": 6311,
      "attr": 6312,
      "rede": 6313,
      "retake": 6314,
      "reliving": 6315,
      "refresh": 6316,
      "resolved": 6317,
      "ases": 6318,
      "ordeal": 6319,
      "stars": 6320,
      "haw": 6321,
      "armad": 6322,
      "aries": 6323,
      "sober": 6324,
      "soaked": 6325,
      "behave": 6326,
      "belive": 6327,
      "veggies": 6328,
      "heir": 6329,
      "sebas": 6330,
      "former": 6331,
      "forced": 6332,
      "choked": 6333,
      "weak": 6334,
      "weap": 6335,
      "keyed": 6336,
      "image": 6337,
      "liking": 6338,
      "lob": 6339,
      "locks": 6340,
      "dolph": 6341,
      "nood": 6342,
      "noble": 6343,
      "bugging": 6344,
      "bucket": 6345,
      "bubble": 6346,
      "peak": 6347,
      "hose": 6348,
      "holes": 6349,
      "escap": 6350,
      "unprepared": 6351,
      "justice": 6352,
      "upgrade": 6353,
      "oking": 6354,
      "trade": 6355,
      "actor": 6356,
      "plates": 6357,
      "degre": 6358,
      "prep": 6359,
      "grey": 6360,
      "illac": 6361,
      "opto": 6362,
      "jokes": 6363,
      "comic": 6364,
      "carefree": 6365,
      "guide": 6366,
      "conce": 6367,
      "lfi": 6368,
      "diam": 6369,
      "girlfi": 6370,
      "housework": 6371,
      "needless": 6372,
      "thanked": 6373,
      "rushed": 6374,
      "comedy": 6375,
      "chip": 6376,
      "talents": 6377,
      "driven": 6378,
      "theirs": 6379,
      "sadness": 6380,
      "cuts": 6381,
      "clinton": 6382,
      "gains": 6383,
      "clogged": 6384,
      "tested": 6385,
      "collect": 6386,
      "created": 6387,
      "steem": 6388,
      "jeep": 6389,
      "humid": 6390,
      "contacting": 6391,
      "headaches": 6392,
      "dining": 6393,
      "flower": 6394,
      "spell": 6395,
      "ension": 6396,
      "licen": 6397,
      "10th": 6398,
      "curve": 6399,
      "curse": 6400,
      "2019": 6401,
      "anced": 6402,
      "stors": 6403,
      "slack": 6404,
      "bia": 6405,
      "bikes": 6406,
      "pains": 6407,
      "painted": 6408,
      "entirely": 6409,
      "difficul": 6410,
      "advise": 6411,
      "named": 6412,
      "valid": 6413,
      "warmed": 6414,
      "sci": 6415,
      "buildings": 6416,
      "growth": 6417,
      "generations": 6418,
      "hellp": 6419,
      "instin": 6420,
      "install": 6421,
      "gardens": 6422,
      "chickens": 6423,
      "knocking": 6424,
      "accounting": 6425,
      "liner": 6426,
      "construction": 6427,
      "polite": 6428,
      "hyper": 6429,
      "hamburger": 6430,
      "crowds": 6431,
      "racist": 6432,
      "hidden": 6433,
      "earns": 6434,
      "employment": 6435,
      "meatloaf": 6436,
      "oddly": 6437,
      "factory": 6438,
      "salesman": 6439,
      "recommended": 6440,
      "chefs": 6441,
      "included": 6442,
      "clowns": 6443,
      "determination": 6444,
      "boots": 6445,
      "colleagues": 6446,
      "timing": 6447,
      "documents": 6448,
      "browns": 6449,
      "demanded": 6450,
      "operation": 6451,
      "castle": 6452,
      "sparring": 6453,
      "debts": 6454,
      "silver": 6455,
      "counselor": 6456,
      "cartoon": 6457,
      "guests": 6458,
      "adventure": 6459,
      "details": 6460,
      "pancreatitis": 6461,
      "sneaky": 6462,
      "melted": 6463,
      "crisis": 6464,
      "pastor": 6465,
      "favour": 6466,
      "branch": 6467,
      "remote": 6468,
      "staff": 6469,
      "breeze": 6470,
      "snuggle": 6471,
      "vitam": 6472,
      "inherited": 6473,
      "renov": 6474,
      "astonished": 6475,
      "commercials": 6476,
      "religious": 6477,
      "casserole": 6478,
      "adrenaline": 6479,
      "maternity": 6480,
      "gallon": 6481,
      "ambulance": 6482,
      "entitled": 6483,
      "exhaust": 6484,
      "cadillac": 6485,
      "armadillo": 6486,
      "heirloom": 6487,
      "sebastian": 6488,
      "escaped": 6489,
      "difficulties": 6490,
      "65": 6491,
      "93": 6492,
      "bone": 6493,
      "bent": 6494,
      "cies": 6495,
      "cds": 6496,
      "dust": 6497,
      "fry": 6498,
      "hiring": 6499,
      "haters": 6500,
      "ik": 6501,
      "iu": 6502,
      "ivy": 6503,
      "jama": 6504,
      "joking": 6505,
      "kha": 6506,
      "lb": 6507,
      "lana": 6508,
      "mst": 6509,
      "olives": 6510,
      "osity": 6511,
      "tab": 6512,
      "uu": 6513,
      "zu": 6514,
      "intri": 6515,
      "incompetent": 6516,
      "erce": 6517,
      "remove": 6518,
      "returns": 6519,
      "replacing": 6520,
      "resume": 6521,
      "ene": 6522,
      "enly": 6523,
      "enger": 6524,
      "enthus": 6525,
      "aspec": 6526,
      "associ": 6527,
      "stig": 6528,
      "hammer": 6529,
      "bears": 6530,
      "gown": 6531,
      "ofeed": 6532,
      "sessed": 6533,
      "river": 6534,
      "alfre": 6535,
      "ami": 6536,
      "among": 6537,
      "imately": 6538,
      "imony": 6539,
      "robe": 6540,
      "rocks": 6541,
      "roses": 6542,
      "tious": 6543,
      "tipped": 6544,
      "tires": 6545,
      "los": 6546,
      "dove": 6547,
      "buzz": 6548,
      "hobb": 6549,
      "sus": 6550,
      "coyo": 6551,
      "unner": 6552,
      "unfaithful": 6553,
      "unzi": 6554,
      "unaware": 6555,
      "upgrad": 6556,
      "gotcha": 6557,
      "teens": 6558,
      "gran": 6559,
      "sail": 6560,
      "carol": 6561,
      "carried": 6562,
      "yearly": 6563,
      "prek": 6564,
      "knowledge": 6565,
      "urally": 6566,
      "joint": 6567,
      "john": 6568,
      "compassion": 6569,
      "pers": 6570,
      "perman": 6571,
      "backs": 6572,
      "boot": 6573,
      "doggie": 6574,
      "concre": 6575,
      "overflow": 6576,
      "ideal": 6577,
      "nightgown": 6578,
      "pure": 6579,
      "mors": 6580,
      "print": 6581,
      "recru": 6582,
      "ques": 6583,
      "fires": 6584,
      "firen": 6585,
      "fierce": 6586,
      "monkey": 6587,
      "checks": 6588,
      "apping": 6589,
      "apples": 6590,
      "beings": 6591,
      "survi": 6592,
      "certified": 6593,
      "passenger": 6594,
      "miami": 6595,
      "sincere": 6596,
      "mployment": 6597,
      "wardrobe": 6598,
      "izon": 6599,
      "dislike": 6600,
      "gamecube": 6601,
      "testimony": 6602,
      "mary": 6603,
      "march": 6604,
      "marvel": 6605,
      "grandkids": 6606,
      "supple": 6607,
      "jee": 6608,
      "babys": 6609,
      "contri": 6610,
      "bled": 6611,
      "blink": 6612,
      "orders": 6613,
      "enjoyable": 6614,
      "gile": 6615,
      "compens": 6616,
      "doorstep": 6617,
      "useful": 6618,
      "symp": 6619,
      "sweets": 6620,
      "breakup": 6621,
      "drome": 6622,
      "dealt": 6623,
      "shaken": 6624,
      "shakes": 6625,
      "checkup": 6626,
      "gnition": 6627,
      "cursed": 6628,
      "mask": 6629,
      "ggles": 6630,
      "20k": 6631,
      "pickles": 6632,
      "venom": 6633,
      "seasons": 6634,
      "slower": 6635,
      "walks": 6636,
      "pooping": 6637,
      "phobia": 6638,
      "midwest": 6639,
      "boxer": 6640,
      "treating": 6641,
      "advanced": 6642,
      "lords": 6643,
      "jumps": 6644,
      "warned": 6645,
      "blocked": 6646,
      "traveled": 6647,
      "eleph": 6648,
      "grounded": 6649,
      "busch": 6650,
      "throws": 6651,
      "prayed": 6652,
      "dented": 6653,
      "drawn": 6654,
      "cases": 6655,
      "screw": 6656,
      "quitting": 6657,
      "chocolates": 6658,
      "sticks": 6659,
      "speakers": 6660,
      "performing": 6661,
      "touching": 6662,
      "pops": 6663,
      "bathing": 6664,
      "sprayed": 6665,
      "sixth": 6666,
      "propose": 6667,
      "tempted": 6668,
      "inspir": 6669,
      "sandwiches": 6670,
      "neglected": 6671,
      "products": 6672,
      "reunited": 6673,
      "greedy": 6674,
      "status": 6675,
      "statist": 6676,
      "official": 6677,
      "lifted": 6678,
      "crawl": 6679,
      "grilled": 6680,
      "recognition": 6681,
      "conditioning": 6682,
      "facility": 6683,
      "hillary": 6684,
      "developed": 6685,
      "frog": 6686,
      "dragons": 6687,
      "decorating": 6688,
      "affected": 6689,
      "explode": 6690,
      "flashlight": 6691,
      "thousands": 6692,
      "rejection": 6693,
      "poisoning": 6694,
      "document": 6695,
      "communication": 6696,
      "surprisingly": 6697,
      "grudge": 6698,
      "originally": 6699,
      "twenti": 6700,
      "fragile": 6701,
      "falcons": 6702,
      "reflecting": 6703,
      "aaa": 6704,
      "regardless": 6705,
      "uncertainty": 6706,
      "interrupts": 6707,
      "reported": 6708,
      "criminal": 6709,
      "costume": 6710,
      "grinding": 6711,
      "syndrome": 6712,
      "cinema": 6713,
      "ignoring": 6714,
      "dorm": 6715,
      "raccoon": 6716,
      "alligator": 6717,
      "nachos": 6718,
      "occupied": 6719,
      "intelligent": 6720,
      "balloons": 6721,
      "craziest": 6722,
      "sacri": 6723,
      "tackle": 6724,
      "puddle": 6725,
      "cryptocurrency": 6726,
      "circumst": 6727,
      "kimchi": 6728,
      "refreshing": 6729,
      "enthusi": 6730,
      "ofeedback": 6731,
      "alfredo": 6732,
      "hobbies": 6733,
      "coyote": 6734,
      "unzipped": 6735,
      "sailor": 6736,
      "carolina": 6737,
      "circumstances": 6738,
      "98": 6739,
      "ait": 6740,
      "cree": 6741,
      "dc": 6742,
      "ebay": 6743,
      "faced": 6744,
      "gus": 6745,
      "ius": 6746,
      "mand": 6747,
      "nh": 6748,
      "nour": 6749,
      "oof": 6750,
      "pod": 6751,
      "pts": 6752,
      "pacing": 6753,
      "swell": 6754,
      "sna": 6755,
      "uated": 6756,
      "vs": 6757,
      "wand": 6758,
      "ths": 6759,
      "anony": 6760,
      "tow": 6761,
      "tote": 6762,
      "atlant": 6763,
      "reg": 6764,
      "rever": 6765,
      "retri": 6766,
      "revol": 6767,
      "remodel": 6768,
      "iti": 6769,
      "itly": 6770,
      "oni": 6771,
      "ashe": 6772,
      "aside": 6773,
      "mel": 6774,
      "llo": 6775,
      "stic": 6776,
      "isher": 6777,
      "soo": 6778,
      "beg": 6779,
      "bel": 6780,
      "bele": 6781,
      "veland": 6782,
      "thatll": 6783,
      "lec": 6784,
      "sect": 6785,
      "allowing": 6786,
      "ald": 6787,
      "chie": 6788,
      "admini": 6789,
      "outlook": 6790,
      "fears": 6791,
      "rover": 6792,
      "roast": 6793,
      "getic": 6794,
      "tives": 6795,
      "noto": 6796,
      "core": 6797,
      "copa": 6798,
      "coole": 6799,
      "ung": 6800,
      "unsafe": 6801,
      "unpleasant": 6802,
      "shelf": 6803,
      "shing": 6804,
      "canned": 6805,
      "carame": 6806,
      "cardio": 6807,
      "william": 6808,
      "indul": 6809,
      "india": 6810,
      "opsy": 6811,
      "urge": 6812,
      "ify": 6813,
      "icious": 6814,
      "kings": 6815,
      "cautious": 6816,
      "mula": 6817,
      "ieved": 6818,
      "concent": 6819,
      "waiter": 6820,
      "pros": 6821,
      "proceed": 6822,
      "puls": 6823,
      "beta": 6824,
      "evac": 6825,
      "dili": 6826,
      "nicest": 6827,
      "familly": 6828,
      "mani": 6829,
      "trials": 6830,
      "lifes": 6831,
      "lug": 6832,
      "tap": 6833,
      "tape": 6834,
      "tapping": 6835,
      "appli": 6836,
      "brad": 6837,
      "woah": 6838,
      "excites": 6839,
      "liest": 6840,
      "mice": 6841,
      "rowave": 6842,
      "frank": 6843,
      "mption": 6844,
      "disappear": 6845,
      "cleveland": 6846,
      "catfish": 6847,
      "paris": 6848,
      "parach": 6849,
      "marked": 6850,
      "crew": 6851,
      "leaking": 6852,
      "vacy": 6853,
      "supply": 6854,
      "supercopa": 6855,
      "jewel": 6856,
      "jello": 6857,
      "cooler": 6858,
      "balls": 6859,
      "smacked": 6860,
      "dug": 6861,
      "blank": 6862,
      "singer": 6863,
      "mines": 6864,
      "cram": 6865,
      "moves": 6866,
      "useless": 6867,
      "wondered": 6868,
      "lightening": 6869,
      "drowned": 6870,
      "calor": 6871,
      "calmed": 6872,
      "deciding": 6873,
      "shaved": 6874,
      "stration": 6875,
      "stret": 6876,
      "streak": 6877,
      "sats": 6878,
      "expense": 6879,
      "experiment": 6880,
      "correc": 6881,
      "freeway": 6882,
      "facetime": 6883,
      "venge": 6884,
      "freel": 6885,
      "biopsy": 6886,
      "fortunat": 6887,
      "privacy": 6888,
      "floored": 6889,
      "mistak": 6890,
      "valent": 6891,
      "swift": 6892,
      "growling": 6893,
      "cups": 6894,
      "beats": 6895,
      "accomplishments": 6896,
      "speeches": 6897,
      "fitting": 6898,
      "batman": 6899,
      "satisfying": 6900,
      "robin": 6901,
      "profit": 6902,
      "speaker": 6903,
      "attacking": 6904,
      "adulting": 6905,
      "punished": 6906,
      "researching": 6907,
      "stronger": 6908,
      "honors": 6909,
      "milestone": 6910,
      "charges": 6911,
      "vote": 6912,
      "dentists": 6913,
      "shotgun": 6914,
      "brighter": 6915,
      "naturally": 6916,
      "relieving": 6917,
      "connection": 6918,
      "federal": 6919,
      "tempt": 6920,
      "qualify": 6921,
      "skipping": 6922,
      "confronted": 6923,
      "suprise": 6924,
      "penny": 6925,
      "pencil": 6926,
      "gravel": 6927,
      "electr": 6928,
      "repeating": 6929,
      "recovery": 6930,
      "freakin": 6931,
      "conditioner": 6932,
      "gory": 6933,
      "cornhole": 6934,
      "leftover": 6935,
      "microwave": 6936,
      "cocky": 6937,
      "competi": 6938,
      "soulmate": 6939,
      "americas": 6940,
      "attach": 6941,
      "magical": 6942,
      "21st": 6943,
      "infection": 6944,
      "thunderstorms": 6945,
      "bbq": 6946,
      "frequent": 6947,
      "episodes": 6948,
      "yummy": 6949,
      "pepperoni": 6950,
      "ketchup": 6951,
      "creatures": 6952,
      "demanding": 6953,
      "ewww": 6954,
      "introduce": 6955,
      "comforted": 6956,
      "scene": 6957,
      "cravings": 6958,
      "reflect": 6959,
      "neuro": 6960,
      "assertive": 6961,
      "initial": 6962,
      "discussing": 6963,
      "ctible": 6964,
      "chubby": 6965,
      "drums": 6966,
      "jitsu": 6967,
      "skateboard": 6968,
      "tomato": 6969,
      "cigarettes": 6970,
      "thieves": 6971,
      "arcade": 6972,
      "commands": 6973,
      "temporary": 6974,
      "neurofeedback": 6975,
      "academic": 6976,
      "nuggets": 6977,
      "toppings": 6978,
      "contractor": 6979,
      "deductible": 6980,
      "degrees": 6981,
      "installing": 6982,
      "lanai": 6983,
      "concrete": 6984,
      "contribut": 6985,
      "symptoms": 6986,
      "nourished": 6987,
      "anonymous": 6988,
      "atlanta": 6989,
      "asheville": 6990,
      "administration": 6991,
      "coolest": 6992,
      "caramel": 6993,
      "williams": 6994,
      "jewelry": 6995,
      "33": 6996,
      "3am": 6997,
      "bits": 6998,
      "brush": 6999,
      "dash": 7000,
      "drain": 7001,
      "daunting": 7002,
      "fought": 7003,
      "fash": 7004,
      "ghet": 7005,
      "hm": 7006,
      "hint": 7007,
      "iwas": 7008,
      "ile": 7009,
      "kissed": 7010,
      "knit": 7011,
      "lide": 7012,
      "nas": 7013,
      "nar": 7014,
      "nag": 7015,
      "oke": 7016,
      "pad": 7017,
      "pok": 7018,
      "rack": 7019,
      "racking": 7020,
      "sno": 7021,
      "smar": 7022,
      "tand": 7023,
      "upper": 7024,
      "wid": 7025,
      "wend": 7026,
      "zone": 7027,
      "zip": 7028,
      "thir": 7029,
      "inve": 7030,
      "toll": 7031,
      "toast": 7032,
      "toyo": 7033,
      "atar": 7034,
      "atic": 7035,
      "atches": 7036,
      "ref": 7037,
      "refer": 7038,
      "revenge": 7039,
      "ington": 7040,
      "asian": 7041,
      "meowing": 7042,
      "oring": 7043,
      "stad": 7044,
      "hael": 7045,
      "beans": 7046,
      "begg": 7047,
      "beaming": 7048,
      "vey": 7049,
      "heli": 7050,
      "heater": 7051,
      "lection": 7052,
      "seven": 7053,
      "allerg": 7054,
      "wii": 7055,
      "wire": 7056,
      "outback": 7057,
      "newest": 7058,
      "rose": 7059,
      "robot": 7060,
      "tially": 7061,
      "notifying": 7062,
      "mode": 7063,
      "coat": 7064,
      "code": 7065,
      "cocon": 7066,
      "tering": 7067,
      "unpacked": 7068,
      "undies": 7069,
      "sheep": 7070,
      "trace": 7071,
      "exchange": 7072,
      "exotic": 7073,
      "acy": 7074,
      "weekly": 7075,
      "acknow": 7076,
      "carton": 7077,
      "preordered": 7078,
      "opard": 7079,
      "wellington": 7080,
      "compar": 7081,
      "comments": 7082,
      "backflip": 7083,
      "choosing": 7084,
      "potle": 7085,
      "ously": 7086,
      "rag": 7087,
      "raises": 7088,
      "stones": 7089,
      "gued": 7090,
      "guarant": 7091,
      "converse": 7092,
      "offering": 7093,
      "overtime": 7094,
      "overwatch": 7095,
      "overweight": 7096,
      "spaced": 7097,
      "proced": 7098,
      "epic": 7099,
      "sigh": 7100,
      "silent": 7101,
      "dios": 7102,
      "whove": 7103,
      "quie": 7104,
      "fibro": 7105,
      "filed": 7106,
      "monitor": 7107,
      "studios": 7108,
      "lump": 7109,
      "chess": 7110,
      "funds": 7111,
      "sites": 7112,
      "playground": 7113,
      "chipotle": 7114,
      "brat": 7115,
      "brides": 7116,
      "monthly": 7117,
      "surface": 7118,
      "tensions": 7119,
      "fraud": 7120,
      "dripping": 7121,
      "childish": 7122,
      "gameboy": 7123,
      "gaining": 7124,
      "parenting": 7125,
      "angri": 7126,
      "resent": 7127,
      "resour": 7128,
      "superior": 7129,
      "jeopard": 7130,
      "hahahaha": 7131,
      "restar": 7132,
      "duties": 7133,
      "amazingly": 7134,
      "winner": 7135,
      "sickness": 7136,
      "buys": 7137,
      "minim": 7138,
      "minated": 7139,
      "meantime": 7140,
      "memorable": 7141,
      "intim": 7142,
      "sym": 7143,
      "juggling": 7144,
      "footsteps": 7145,
      "grats": 7146,
      "shaky": 7147,
      "fasting": 7148,
      "strate": 7149,
      "rainstorm": 7150,
      "2016": 7151,
      "2017": 7152,
      "ultimately": 7153,
      "snug": 7154,
      "fellow": 7155,
      "sunshine": 7156,
      "landlords": 7157,
      "meetings": 7158,
      "charm": 7159,
      "concern": 7160,
      "concerts": 7161,
      "genius": 7162,
      "fails": 7163,
      "spots": 7164,
      "donated": 7165,
      "ladder": 7166,
      "pilot": 7167,
      "garlic": 7168,
      "intentional": 7169,
      "candles": 7170,
      "destru": 7171,
      "elections": 7172,
      "grows": 7173,
      "irritates": 7174,
      "subst": 7175,
      "clubs": 7176,
      "menu": 7177,
      "prayer": 7178,
      "bragging": 7179,
      "killer": 7180,
      "obama": 7181,
      "ioli": 7182,
      "ailing": 7183,
      "salon": 7184,
      "iana": 7185,
      "gardening": 7186,
      "winnings": 7187,
      "abili": 7188,
      "accounts": 7189,
      "flush": 7190,
      "hhh": 7191,
      "voted": 7192,
      "flooding": 7193,
      "shelters": 7194,
      "emergencies": 7195,
      "enging": 7196,
      "creeped": 7197,
      "16th": 7198,
      "pleasure": 7199,
      "cliff": 7200,
      "vivid": 7201,
      "allows": 7202,
      "medium": 7203,
      "regrets": 7204,
      "unemployed": 7205,
      "refunded": 7206,
      "ators": 7207,
      "addicted": 7208,
      "heavily": 7209,
      "crawled": 7210,
      "radi": 7211,
      "seagull": 7212,
      "regretted": 7213,
      "seattle": 7214,
      "challenging": 7215,
      "pitbull": 7216,
      "peeing": 7217,
      "michael": 7218,
      "require": 7219,
      "autono": 7220,
      "deceased": 7221,
      "appears": 7222,
      "electricity": 7223,
      "gigantic": 7224,
      "include": 7225,
      "decorations": 7226,
      "defense": 7227,
      "malnourished": 7228,
      "illegal": 7229,
      "possum": 7230,
      "tacos": 7231,
      "documentary": 7232,
      "247": 7233,
      "moldy": 7234,
      "copter": 7235,
      "muscles": 7236,
      "equi": 7237,
      "inspected": 7238,
      "collap": 7239,
      "silence": 7240,
      "development": 7241,
      "influence": 7242,
      "provider": 7243,
      "pillow": 7244,
      "variety": 7245,
      "condol": 7246,
      "separated": 7247,
      "costumes": 7248,
      "lipstick": 7249,
      "gullible": 7250,
      "source": 7251,
      "desperate": 7252,
      "economics": 7253,
      "maintenance": 7254,
      "burrito": 7255,
      "bracelet": 7256,
      "waterslide": 7257,
      "encouraged": 7258,
      "sheets": 7259,
      "leadership": 7260,
      "zombie": 7261,
      "global": 7262,
      "ravioli": 7263,
      "cringe": 7264,
      "transition": 7265,
      "louis": 7266,
      "insisted": 7267,
      "january": 7268,
      "sneezed": 7269,
      "inevitable": 7270,
      "redemption": 7271,
      "lobster": 7272,
      "licensing": 7273,
      "vitamins": 7274,
      "supplements": 7275,
      "statistics": 7276,
      "region": 7277,
      "notorious": 7278,
      "fashion": 7279,
      "ghetto": 7280,
      "smarter": 7281,
      "wendys": 7282,
      "toyota": 7283,
      "stadium": 7284,
      "helicopter": 7285,
      "allergies": 7286,
      "coconut": 7287,
      "seagulls": 7288,
      "27": 7289,
      "2500": 7290,
      "350": 7291,
      "afri": 7292,
      "bicle": 7293,
      "bnb": 7294,
      "cke": 7295,
      "cries": 7296,
      "dare": 7297,
      "dresses": 7298,
      "etern": 7299,
      "esteem": 7300,
      "jur": 7301,
      "jiu": 7302,
      "kne": 7303,
      "kart": 7304,
      "kfc": 7305,
      "lk": 7306,
      "lat": 7307,
      "mt": 7308,
      "mend": 7309,
      "mashed": 7310,
      "niss": 7311,
      "olive": 7312,
      "pid": 7313,
      "pour": 7314,
      "plot": 7315,
      "rc": 7316,
      "rash": 7317,
      "ssom": 7318,
      "swarmed": 7319,
      "tends": 7320,
      "twel": 7321,
      "ud": 7322,
      "ums": 7323,
      "uced": 7324,
      "via": 7325,
      "ini": 7326,
      "inches": 7327,
      "inconvenient": 7328,
      "ern": 7329,
      "error": 7330,
      "anny": 7331,
      "toen": 7332,
      "tomy": 7333,
      "topic": 7334,
      "repre": 7335,
      "relu": 7336,
      "resolve": 7337,
      "researched": 7338,
      "ensure": 7339,
      "enroll": 7340,
      "encounter": 7341,
      "asse": 7342,
      "ashes": 7343,
      "ory": 7344,
      "llen": 7345,
      "sted": 7346,
      "stere": 7347,
      "stunk": 7348,
      "stripped": 7349,
      "stalled": 7350,
      "bees": 7351,
      "becu": 7352,
      "begun": 7353,
      "helo": 7354,
      "lege": 7355,
      "owes": 7356,
      "iding": 7357,
      "formula": 7358,
      "chow": 7359,
      "ammo": 7360,
      "ads": 7361,
      "outfits": 7362,
      "libr": 7363,
      "tiring": 7364,
      "nois": 7365,
      "noone": 7366,
      "petri": 7367,
      "abdu": 7368,
      "abcs": 7369,
      "summ": 7370,
      "suspect": 7371,
      "somethings": 7372,
      "mock": 7373,
      "moil": 7374,
      "mobi": 7375,
      "cooper": 7376,
      "cozu": 7377,
      "escar": 7378,
      "und": 7379,
      "unlucky": 7380,
      "unlikely": 7381,
      "unacceptable": 7382,
      "unfortunat": 7383,
      "updated": 7384,
      "herd": 7385,
      "hershe": 7386,
      "whatso": 7387,
      "tram": 7388,
      "nike": 7389,
      "exs": 7390,
      "newer": 7391,
      "accor": 7392,
      "shield": 7393,
      "pla": 7394,
      "plastic": 7395,
      "tee": 7396,
      "delight": 7397,
      "debris": 7398,
      "carpool": 7399,
      "prestig": 7400,
      "jog": 7401,
      "lty": 7402,
      "lasting": 7403,
      "lasted": 7404,
      "ica": 7405,
      "hopeless": 7406,
      "peru": 7407,
      "pered": 7408,
      "permission": 7409,
      "background": 7410,
      "backpacking": 7411,
      "gap": 7412,
      "popped": 7413,
      "harry": 7414,
      "jobless": 7415,
      "assy": 7416,
      "assic": 7417,
      "guts": 7418,
      "consu": 7419,
      "congress": 7420,
      "finance": 7421,
      "finishes": 7422,
      "sier": 7423,
      "bleach": 7424,
      "digging": 7425,
      "recieved": 7426,
      "maker": 7427,
      "manners": 7428,
      "triath": 7429,
      "fist": 7430,
      "shoulders": 7431,
      "lux": 7432,
      "fund": 7433,
      "funding": 7434,
      "funnel": 7435,
      "sounding": 7436,
      "tag": 7437,
      "teddy": 7438,
      "tutor": 7439,
      "ruining": 7440,
      "bors": 7441,
      "playlist": 7442,
      "playoffs": 7443,
      "shoved": 7444,
      "ilad": 7445,
      "interven": 7446,
      "chicks": 7447,
      "turing": 7448,
      "turmoil": 7449,
      "passions": 7450,
      "childs": 7451,
      "letes": 7452,
      "mustard": 7453,
      "undermine": 7454,
      "cubicle": 7455,
      "dispu": 7456,
      "cleared": 7457,
      "cloths": 7458,
      "planet": 7459,
      "latest": 7460,
      "collected": 7461,
      "roomie": 7462,
      "medal": 7463,
      "ipal": 7464,
      "create": 7465,
      "tomorrows": 7466,
      "leap": 7467,
      "traits": 7468,
      "motherinlaw": 7469,
      "supper": 7470,
      "amazes": 7471,
      "hut": 7472,
      "twoyearold": 7473,
      "earrings": 7474,
      "ffy": 7475,
      "smack": 7476,
      "smiling": 7477,
      "ctant": 7478,
      "otes": 7479,
      "crapped": 7480,
      "mins": 7481,
      "meanwhile": 7482,
      "petty": 7483,
      "crab": 7484,
      "sery": 7485,
      "horses": 7486,
      "heads": 7487,
      "sleepy": 7488,
      "drowning": 7489,
      "calming": 7490,
      "dreamed": 7491,
      "confide": 7492,
      "handled": 7493,
      "matic": 7494,
      "stranded": 7495,
      "annoys": 7496,
      "hearted": 7497,
      "packs": 7498,
      "ancing": 7499,
      "faces": 7500,
      "picky": 7501,
      "slim": 7502,
      "slacking": 7503,
      "sung": 7504,
      "landsca": 7505,
      "trains": 7506,
      "charger": 7507,
      "imagination": 7508,
      "bunker": 7509,
      "bodies": 7510,
      "steady": 7511,
      "videogame": 7512,
      "trepid": 7513,
      "bodybuilding": 7514,
      "ankles": 7515,
      "messages": 7516,
      "affordable": 7517,
      "hairs": 7518,
      "scott": 7519,
      "promp": 7520,
      "commend": 7521,
      "donut": 7522,
      "oooh": 7523,
      "statement": 7524,
      "10000": 7525,
      "approve": 7526,
      "warr": 7527,
      "tongue": 7528,
      "aunts": 7529,
      "hungover": 7530,
      "darkness": 7531,
      "swings": 7532,
      "crashing": 7533,
      "borrowing": 7534,
      "financing": 7535,
      "brag": 7536,
      "emotionally": 7537,
      "fitness": 7538,
      "dresser": 7539,
      "exception": 7540,
      "wheat": 7541,
      "ultras": 7542,
      "potter": 7543,
      "bowls": 7544,
      "wooden": 7545,
      "guns": 7546,
      "nursery": 7547,
      "increase": 7548,
      "crushing": 7549,
      "anticipate": 7550,
      "notebook": 7551,
      "stationed": 7552,
      "tailg": 7553,
      "constant": 7554,
      "films": 7555,
      "spaces": 7556,
      "spaceship": 7557,
      "london": 7558,
      "screams": 7559,
      "hydr": 7560,
      "depending": 7561,
      "protecting": 7562,
      "programming": 7563,
      "boats": 7564,
      "proposing": 7565,
      "qualific": 7566,
      "bacon": 7567,
      "bachelo": 7568,
      "unemployment": 7569,
      "crosswalk": 7570,
      "carts": 7571,
      "explained": 7572,
      "structure": 7573,
      "instrument": 7574,
      "tommor": 7575,
      "presence": 7576,
      "limited": 7577,
      "shipping": 7578,
      "suffered": 7579,
      "virus": 7580,
      "pricey": 7581,
      "danced": 7582,
      "occasions": 7583,
      "necessarily": 7584,
      "drawer": 7585,
      "hillbill": 7586,
      "banking": 7587,
      "psyched": 7588,
      "pathy": 7589,
      "activity": 7590,
      "cabine": 7591,
      "affection": 7592,
      "possessions": 7593,
      "materials": 7594,
      "mosquito": 7595,
      "journ": 7596,
      "witness": 7597,
      "lanes": 7598,
      "dosnt": 7599,
      "ewwww": 7600,
      "contrary": 7601,
      "decline": 7602,
      "banging": 7603,
      "habits": 7604,
      "comforter": 7605,
      "critic": 7606,
      "scale": 7607,
      "punishment": 7608,
      "fruits": 7609,
      "remaining": 7610,
      "requested": 7611,
      "debate": 7612,
      "wrapped": 7613,
      "adjusting": 7614,
      "audition": 7615,
      "adventures": 7616,
      "bouncing": 7617,
      "boosted": 7618,
      "interrupting": 7619,
      "slices": 7620,
      "audience": 7621,
      "maxim": 7622,
      "describe": 7623,
      "sync": 7624,
      "pancreatic": 7625,
      "squirrels": 7626,
      "bullets": 7627,
      "breathing": 7628,
      "desperately": 7629,
      "economic": 7630,
      "spilling": 7631,
      "shredded": 7632,
      "foreclo": 7633,
      "confessed": 7634,
      "fifa": 7635,
      "ranged": 7636,
      "ordinary": 7637,
      "predict": 7638,
      "puzzle": 7639,
      "weighing": 7640,
      "sleepover": 7641,
      "wisdom": 7642,
      "politicians": 7643,
      "judgment": 7644,
      "housing": 7645,
      "obedience": 7646,
      "rette": 7647,
      "digestive": 7648,
      "millenial": 7649,
      "permanent": 7650,
      "jeez": 7651,
      "inspiration": 7652,
      "calories": 7653,
      "narrow": 7654,
      "poker": 7655,
      "tandem": 7656,
      "investors": 7657,
      "acknowledge": 7658,
      "bridesmaid": 7659,
      "resources": 7660,
      "snuggled": 7661,
      "equipped": 7662,
      "condolences": 7663,
      "africa": 7664,
      "jurassic": 7665,
      "twelve": 7666,
      "toenail": 7667,
      "reluctant": 7668,
      "stereo": 7669,
      "library": 7670,
      "petrified": 7671,
      "summers": 7672,
      "mobile": 7673,
      "cozumel": 7674,
      "escargot": 7675,
      "according": 7676,
      "prestigious": 7677,
      "ultrasound": 7678,
      "bachelorette": 7679,
      "31": 7680,
      "36": 7681,
      "ape": 7682,
      "awards": 7683,
      "atory": 7684,
      "bc": 7685,
      "bart": 7686,
      "cv": 7687,
      "dps": 7688,
      "dged": 7689,
      "epest": 7690,
      "fate": 7691,
      "fty": 7692,
      "fade": 7693,
      "gay": 7694,
      "hating": 7695,
      "ime": 7696,
      "iel": 7697,
      "iers": 7698,
      "ivity": 7699,
      "kong": 7700,
      "kry": 7701,
      "lending": 7702,
      "mou": 7703,
      "nastic": 7704,
      "nanny": 7705,
      "oy": 7706,
      "oter": 7707,
      "ology": 7708,
      "piss": 7709,
      "pons": 7710,
      "rin": 7711,
      "rating": 7712,
      "rise": 7713,
      "rates": 7714,
      "sse": 7715,
      "shave": 7716,
      "snot": 7717,
      "sate": 7718,
      "swo": 7719,
      "scru": 7720,
      "scrap": 7721,
      "tay": 7722,
      "tly": 7723,
      "uch": 7724,
      "uke": 7725,
      "uine": 7726,
      "vill": 7727,
      "vig": 7728,
      "vul": 7729,
      "ws": 7730,
      "wran": 7731,
      "wary": 7732,
      "wrap": 7733,
      "wishes": 7734,
      "zil": 7735,
      "thod": 7736,
      "inate": 7737,
      "infin": 7738,
      "torist": 7739,
      "rewards": 7740,
      "repub": 7741,
      "retro": 7742,
      "reply": 7743,
      "reconnected": 7744,
      "iter": 7745,
      "itals": 7746,
      "melon": 7747,
      "orle": 7748,
      "myster": 7749,
      "eds": 7750,
      "stam": 7751,
      "stals": 7752,
      "stared": 7753,
      "haul": 7754,
      "wasy": 7755,
      "wasps": 7756,
      "artic": 7757,
      "argent": 7758,
      "sox": 7759,
      "soap": 7760,
      "beaches": 7761,
      "heating": 7762,
      "heels": 7763,
      "idk": 7764,
      "idelity": 7765,
      "forms": 7766,
      "ricky": 7767,
      "alab": 7768,
      "alwasy": 7769,
      "china": 7770,
      "adds": 7771,
      "admir": 7772,
      "imple": 7773,
      "lict": 7774,
      "fever": 7775,
      "roaming": 7776,
      "geon": 7777,
      "gears": 7778,
      "geons": 7779,
      "tiest": 7780,
      "logi": 7781,
      "loops": 7782,
      "dome": 7783,
      "dodge": 7784,
      "ceo": 7785,
      "celon": 7786,
      "entity": 7787,
      "homer": 7788,
      "suing": 7789,
      "supre": 7790,
      "motorist": 7791,
      "coping": 7792,
      "irks": 7793,
      "odds": 7794,
      "tral": 7795,
      "nick": 7796,
      "exited": 7797,
      "ounce": 7798,
      "newly": 7799,
      "accur": 7800,
      "weeknd": 7801,
      "plug": 7802,
      "deter": 7803,
      "deepest": 7804,
      "sav": 7805,
      "saves": 7806,
      "safer": 7807,
      "fuzzy": 7808,
      "precau": 7809,
      "hows": 7810,
      "joe": 7811,
      "ified": 7812,
      "commo": 7813,
      "perfe": 7814,
      "persist": 7815,
      "backwards": 7816,
      "boil": 7817,
      "boils": 7818,
      "harass": 7819,
      "doggy": 7820,
      "wage": 7821,
      "mugged": 7822,
      "carefully": 7823,
      "caregi": 7824,
      "conso": 7825,
      "confir": 7826,
      "conclus": 7827,
      "fabul": 7828,
      "faware": 7829,
      "offers": 7830,
      "proved": 7831,
      "props": 7832,
      "pran": 7833,
      "sizes": 7834,
      "nerable": 7835,
      "litlle": 7836,
      "recliner": 7837,
      "trial": 7838,
      "prettiest": 7839,
      "luch": 7840,
      "helpless": 7841,
      "chewing": 7842,
      "sorted": 7843,
      "tage": 7844,
      "apps": 7845,
      "ruins": 7846,
      "rumors": 7847,
      "rugrats": 7848,
      "shore": 7849,
      "shook": 7850,
      "shops": 7851,
      "lathe": 7852,
      "bride": 7853,
      "tical": 7854,
      "excitied": 7855,
      "suring": 7856,
      "gler": 7857,
      "password": 7858,
      "mild": 7859,
      "bigfoot": 7860,
      "pajama": 7861,
      "coupons": 7862,
      "mustang": 7863,
      "saddest": 7864,
      "disgu": 7865,
      "disgrace": 7866,
      "clin": 7867,
      "cler": 7868,
      "planes": 7869,
      "birthdays": 7870,
      "collector": 7871,
      "traps": 7872,
      "sisterinlaw": 7873,
      "amaze": 7874,
      "jesus": 7875,
      "hugs": 7876,
      "hulk": 7877,
      "german": 7878,
      "ffle": 7879,
      "smiled": 7880,
      "brewer": 7881,
      "contain": 7882,
      "mighty": 7883,
      "intended": 7884,
      "closes": 7885,
      "closely": 7886,
      "desig": 7887,
      "elsewhere": 7888,
      "conflict": 7889,
      "ential": 7890,
      "anyones": 7891,
      "roads": 7892,
      "easter": 7893,
      "heartwarming": 7894,
      "aska": 7895,
      "strep": 7896,
      "corvet": 7897,
      "freely": 7898,
      "picks": 7899,
      "snapped": 7900,
      "barcelon": 7901,
      "billion": 7902,
      "meets": 7903,
      "cession": 7904,
      "presenter": 7905,
      "fiction": 7906,
      "waterpark": 7907,
      "watermelon": 7908,
      "airline": 7909,
      "concerns": 7910,
      "listens": 7911,
      "receip": 7912,
      "genuine": 7913,
      "bodys": 7914,
      "avid": 7915,
      "avatar": 7916,
      "resulted": 7917,
      "tained": 7918,
      "larger": 7919,
      "hotdog": 7920,
      "specialist": 7921,
      "hairball": 7922,
      "hairstyle": 7923,
      "scot": 7924,
      "disappoint": 7925,
      "dreaming": 7926,
      "deserving": 7927,
      "advoc": 7928,
      "oooo": 7929,
      "stepmother": 7930,
      "frustration": 7931,
      "anxiously": 7932,
      "hiv": 7933,
      "warcraft": 7934,
      "simp": 7935,
      "irrational": 7936,
      "extent": 7937,
      "smartphone": 7938,
      "candle": 7939,
      "candies": 7940,
      "effect": 7941,
      "selfaware": 7942,
      "crystal": 7943,
      "gymnastic": 7944,
      "arrives": 7945,
      "generator": 7946,
      "generosity": 7947,
      "shortcake": 7948,
      "brazil": 7949,
      "smoked": 7950,
      "denying": 7951,
      "squee": 7952,
      "accepting": 7953,
      "excel": 7954,
      "honking": 7955,
      "2006": 7956,
      "misunderstood": 7957,
      "fearful": 7958,
      "panick": 7959,
      "crimes": 7960,
      "attacks": 7961,
      "properties": 7962,
      "strap": 7963,
      "seller": 7964,
      "signing": 7965,
      "anticipated": 7966,
      "goldie": 7967,
      "honorable": 7968,
      "mileage": 7969,
      "emerald": 7970,
      "employed": 7971,
      "chats": 7972,
      "writer": 7973,
      "swept": 7974,
      "uncles": 7975,
      "adopting": 7976,
      "creeps": 7977,
      "civic": 7978,
      "loading": 7979,
      "connecting": 7980,
      "connections": 7981,
      "tournaments": 7982,
      "piggy": 7983,
      "distract": 7984,
      "milkshake": 7985,
      "tropic": 7986,
      "shipped": 7987,
      "emailing": 7988,
      "sufficient": 7989,
      "bearable": 7990,
      "pattern": 7991,
      "presidency": 7992,
      "freaks": 7993,
      "nicke": 7994,
      "pointless": 7995,
      "drawings": 7996,
      "injuries": 7997,
      "facts": 7998,
      "cheerleading": 7999,
      "terminator": 8000,
      "turtles": 8001,
      "negatively": 8002,
      "mechanics": 8003,
      "champions": 8004,
      "frozen": 8005,
      "trading": 8006,
      "membership": 8007,
      "affecting": 8008,
      "sauces": 8009,
      "purposely": 8010,
      "4000": 8011,
      "glued": 8012,
      "responded": 8013,
      "spirits": 8014,
      "benefit": 8015,
      "scolded": 8016,
      "participated": 8017,
      "torial": 8018,
      "independence": 8019,
      "sneaking": 8020,
      "scammed": 8021,
      "battlefield": 8022,
      "additional": 8023,
      "frame": 8024,
      "assisted": 8025,
      "assistant": 8026,
      "traumatizing": 8027,
      "hosting": 8028,
      "wrapping": 8029,
      "regarding": 8030,
      "providing": 8031,
      "physi": 8032,
      "neutral": 8033,
      "initially": 8034,
      "neices": 8035,
      "suspicious": 8036,
      "neighbourhood": 8037,
      "attempt": 8038,
      "figur": 8039,
      "surroundings": 8040,
      "thai": 8041,
      "shrie": 8042,
      "description": 8043,
      "bullet": 8044,
      "swallow": 8045,
      "clusive": 8046,
      "cigarette": 8047,
      "resident": 8048,
      "masterchef": 8049,
      "forecast": 8050,
      "diplo": 8051,
      "george": 8052,
      "georgia": 8053,
      "consistently": 8054,
      "dramas": 8055,
      "threatened": 8056,
      "circles": 8057,
      "reassuring": 8058,
      "lexus": 8059,
      "technically": 8060,
      "dunno": 8061,
      "liquor": 8062,
      "broadway": 8063,
      "disheartened": 8064,
      "nauseous": 8065,
      "weapon": 8066,
      "dolphin": 8067,
      "diamond": 8068,
      "girlfiend": 8069,
      "humidity": 8070,
      "favourite": 8071,
      "exhausted": 8072,
      "enemy": 8073,
      "aspect": 8074,
      "firend": 8075,
      "popsicles": 8076,
      "enthusiastic": 8077,
      "creek": 8078,
      "reversed": 8079,
      "retriever": 8080,
      "chief": 8081,
      "luggage": 8082,
      "corrected": 8083,
      "mistakenly": 8084,
      "electron": 8085,
      "neurotic": 8086,
      "snoop": 8087,
      "procedure": 8088,
      "quieter": 8089,
      "restaraunt": 8090,
      "intimid": 8091,
      "knees": 8092,
      "nissan": 8093,
      "whatsoever": 8094,
      "dispute": 8095,
      "warrant": 8096,
      "krystals": 8097,
      "scrapbook": 8098,
      "taylor": 8099,
      "vulnerable": 8100,
      "wrangler": 8101,
      "republi": 8102,
      "orleans": 8103,
      "alabama": 8104,
      "logist": 8105,
      "fabulous": 8106,
      "breweries": 8107,
      "corvette": 8108,
      "barcelona": 8109,
      "gymnastics": 8110,
      "70s": 8111,
      "aim": 8112,
      "bf": 8113,
      "cipal": 8114,
      "dit": 8115,
      "fas": 8116,
      "fati": 8117,
      "faction": 8118,
      "foul": 8119,
      "glove": 8120,
      "gamer": 8121,
      "ister": 8122,
      "jb": 8123,
      "jon": 8124,
      "jsu": 8125,
      "ko": 8126,
      "ku": 8127,
      "kans": 8128,
      "link": 8129,
      "lous": 8130,
      "mant": 8131,
      "moun": 8132,
      "mens": 8133,
      "nash": 8134,
      "naw": 8135,
      "native": 8136,
      "oe": 8137,
      "oon": 8138,
      "pis": 8139,
      "pac": 8140,
      "praised": 8141,
      "pimple": 8142,
      "ray": 8143,
      "rated": 8144,
      "rrow": 8145,
      "rance": 8146,
      "sou": 8147,
      "sri": 8148,
      "slot": 8149,
      "tter": 8150,
      "twin": 8151,
      "uate": 8152,
      "ugg": 8153,
      "vine": 8154,
      "vied": 8155,
      "void": 8156,
      "vng": 8157,
      "yon": 8158,
      "zhe": 8159,
      "thow": 8160,
      "thail": 8161,
      "inclusive": 8162,
      "erts": 8163,
      "analy": 8164,
      "anime": 8165,
      "tobac": 8166,
      "redo": 8167,
      "resi": 8168,
      "relied": 8169,
      "resist": 8170,
      "reconnect": 8171,
      "itation": 8172,
      "assurance": 8173,
      "megran": 8174,
      "edition": 8175,
      "llite": 8176,
      "stan": 8177,
      "stit": 8178,
      "stability": 8179,
      "isp": 8180,
      "ision": 8181,
      "sofa": 8182,
      "sopho": 8183,
      "bead": 8184,
      "beep": 8185,
      "begged": 8186,
      "identity": 8187,
      "sem": 8188,
      "forces": 8189,
      "rifle": 8190,
      "aland": 8191,
      "alaska": 8192,
      "alzhe": 8193,
      "chor": 8194,
      "chron": 8195,
      "weld": 8196,
      "ament": 8197,
      "vert": 8198,
      "imers": 8199,
      "impromp": 8200,
      "outing": 8201,
      "outpour": 8202,
      "liver": 8203,
      "liber": 8204,
      "neare": 8205,
      "roy": 8206,
      "tiger": 8207,
      "loser": 8208,
      "buried": 8209,
      "buff": 8210,
      "buds": 8211,
      "endure": 8212,
      "entry": 8213,
      "entrance": 8214,
      "yess": 8215,
      "pean": 8216,
      "peach": 8217,
      "peice": 8218,
      "pelled": 8219,
      "pesky": 8220,
      "hooked": 8221,
      "abl": 8222,
      "subur": 8223,
      "uster": 8224,
      "cot": 8225,
      "coins": 8226,
      "copper": 8227,
      "iron": 8228,
      "irate": 8229,
      "didn": 8230,
      "worris": 8231,
      "undone": 8232,
      "united": 8233,
      "ungod": 8234,
      "unhealthy": 8235,
      "unfold": 8236,
      "sheet": 8237,
      "goods": 8238,
      "auge": 8239,
      "audated": 8240,
      "niger": 8241,
      "exhi": 8242,
      "extensions": 8243,
      "exterminator": 8244,
      "artwork": 8245,
      "acro": 8246,
      "aclet": 8247,
      "accord": 8248,
      "anyhow": 8249,
      "plum": 8250,
      "demon": 8251,
      "grasp": 8252,
      "graudated": 8253,
      "safar": 8254,
      "yearn": 8255,
      "pressed": 8256,
      "prescri": 8257,
      "usally": 8258,
      "seeming": 8259,
      "footing": 8260,
      "coma": 8261,
      "compress": 8262,
      "everyon": 8263,
      "boiling": 8264,
      "bogus": 8265,
      "choke": 8266,
      "poem": 8267,
      "pomegran": 8268,
      "dogsitting": 8269,
      "wagon": 8270,
      "stove": 8271,
      "stoop": 8272,
      "stored": 8273,
      "stocks": 8274,
      "stopping": 8275,
      "kidney": 8276,
      "confirm": 8277,
      "fax": 8278,
      "offense": 8279,
      "spicy": 8280,
      "pul": 8281,
      "hardy": 8282,
      "bleh": 8283,
      "diary": 8284,
      "reclu": 8285,
      "males": 8286,
      "maps": 8287,
      "quet": 8288,
      "mbed": 8289,
      "parttime": 8290,
      "files": 8291,
      "studio": 8292,
      "pretending": 8293,
      "needy": 8294,
      "chees": 8295,
      "sorta": 8296,
      "tionally": 8297,
      "border": 8298,
      "downloaded": 8299,
      "agi": 8300,
      "betterhalf": 8301,
      "braclet": 8302,
      "wherever": 8303,
      "passeng": 8304,
      "tense": 8305,
      "migr": 8306,
      "paign": 8307,
      "fruster": 8308,
      "couth": 8309,
      "cougar": 8310,
      "momen": 8311,
      "cuz": 8312,
      "believing": 8313,
      "fullest": 8314,
      "merit": 8315,
      "paraly": 8316,
      "msy": 8317,
      "torture": 8318,
      "bites": 8319,
      "colleges": 8320,
      "creating": 8321,
      "grandparent": 8322,
      "stein": 8323,
      "restur": 8324,
      "cleans": 8325,
      "blur": 8326,
      "bliss": 8327,
      "counts": 8328,
      "fortnite": 8329,
      "gible": 8330,
      "differ": 8331,
      "studing": 8332,
      "dinos": 8333,
      "athletes": 8334,
      "despair": 8335,
      "flaunting": 8336,
      "syl": 8337,
      "jude": 8338,
      "juicy": 8339,
      "sweep": 8340,
      "positivity": 8341,
      "heals": 8342,
      "realizes": 8343,
      "easiest": 8344,
      "curls": 8345,
      "heartfelt": 8346,
      "healthcare": 8347,
      "camry": 8348,
      "campaign": 8349,
      "20s": 8350,
      "2020": 8351,
      "cruises": 8352,
      "falls": 8353,
      "sunglasses": 8354,
      "completing": 8355,
      "wears": 8356,
      "airbnb": 8357,
      "rolling": 8358,
      "riders": 8359,
      "attitu": 8360,
      "finalist": 8361,
      "lungs": 8362,
      "terrific": 8363,
      "territorial": 8364,
      "buns": 8365,
      "privi": 8366,
      "decade": 8367,
      "fighters": 8368,
      "tremend": 8369,
      "windshield": 8370,
      "jealousy": 8371,
      "oftenbut": 8372,
      "appreciates": 8373,
      "floating": 8374,
      "mistic": 8375,
      "honesty": 8376,
      "advances": 8377,
      "stepdad": 8378,
      "100000": 8379,
      "gical": 8380,
      "pipes": 8381,
      "bathtub": 8382,
      "quicker": 8383,
      "laughs": 8384,
      "intentions": 8385,
      "intentionally": 8386,
      "blossom": 8387,
      "chap": 8388,
      "zealand": 8389,
      "swat": 8390,
      "beauty": 8391,
      "devil": 8392,
      "device": 8393,
      "scratches": 8394,
      "severance": 8395,
      "subjects": 8396,
      "clumsy": 8397,
      "treatments": 8398,
      "dragged": 8399,
      "deny": 8400,
      "boards": 8401,
      "obsessed": 8402,
      "devasted": 8403,
      "satisfaction": 8404,
      "pursue": 8405,
      "switched": 8406,
      "misunderstanding": 8407,
      "portion": 8408,
      "cheats": 8409,
      "winters": 8410,
      "packages": 8411,
      "tablet": 8412,
      "treehouse": 8413,
      "fourth": 8414,
      "flute": 8415,
      "fluffy": 8416,
      "namon": 8417,
      "chatroom": 8418,
      "tailgate": 8419,
      "signal": 8420,
      "scholarships": 8421,
      "jerry": 8422,
      "organizing": 8423,
      "avoiding": 8424,
      "delay": 8425,
      "brighten": 8426,
      "hamburgers": 8427,
      "clicking": 8428,
      "rattle": 8429,
      "bullying": 8430,
      "yale": 8431,
      "risky": 8432,
      "negle": 8433,
      "lifter": 8434,
      "instruments": 8435,
      "grieve": 8436,
      "womens": 8437,
      "admitting": 8438,
      "professionally": 8439,
      "seats": 8440,
      "virgin": 8441,
      "cellphone": 8442,
      "dumps": 8443,
      "questioned": 8444,
      "questionable": 8445,
      "priceless": 8446,
      "crackers": 8447,
      "drawers": 8448,
      "snowboard": 8449,
      "friendships": 8450,
      "smoothie": 8451,
      "thood": 8452,
      "bombs": 8453,
      "athlete": 8454,
      "giggling": 8455,
      "competing": 8456,
      "international": 8457,
      "defend": 8458,
      "fondly": 8459,
      "mowed": 8460,
      "thunderstorm": 8461,
      "possession": 8462,
      "exploded": 8463,
      "values": 8464,
      "flaked": 8465,
      "booze": 8466,
      "stile": 8467,
      "budgeted": 8468,
      "strike": 8469,
      "strict": 8470,
      "angel": 8471,
      "angeles": 8472,
      "chills": 8473,
      "plugged": 8474,
      "priority": 8475,
      "twitch": 8476,
      "replied": 8477,
      "hmmm": 8478,
      "various": 8479,
      "condoms": 8480,
      "principal": 8481,
      "maintaining": 8482,
      "bounce": 8483,
      "bounced": 8484,
      "locally": 8485,
      "policies": 8486,
      "typical": 8487,
      "reservation": 8488,
      "attempted": 8489,
      "thinner": 8490,
      "olympics": 8491,
      "scoring": 8492,
      "cloudy": 8493,
      "breathe": 8494,
      "swallowed": 8495,
      "tomatoes": 8496,
      "prevented": 8497,
      "raccoons": 8498,
      "maintenence": 8499,
      "temporarily": 8500,
      "technical": 8501,
      "cinnamon": 8502,
      "representative": 8503,
      "burritos": 8504,
      "cockroachs": 8505,
      "published": 8506,
      "russia": 8507,
      "chainsaws": 8508,
      "claims": 8509,
      "wrestle": 8510,
      "investigation": 8511,
      "antibiotics": 8512,
      "data": 8513,
      "indicators": 8514,
      "bouquet": 8515,
      "eligible": 8516,
      "efficient": 8517,
      "infidelity": 8518,
      "noodles": 8519,
      "optomistic": 8520,
      "tabby": 8521,
      "overflowed": 8522,
      "survival": 8523,
      "elephant": 8524,
      "twenties": 8525,
      "mandatory": 8526,
      "nhl": 8527,
      "wandering": 8528,
      "revolting": 8529,
      "concentrate": 8530,
      "pulsive": 8531,
      "appliances": 8532,
      "temptation": 8533,
      "competitor": 8534,
      "contributing": 8535,
      "referring": 8536,
      "beggar": 8537,
      "comparing": 8538,
      "angrily": 8539,
      "jeopardy": 8540,
      "autonomy": 8541,
      "jiujitsu": 8542,
      "delighted": 8543,
      "scottish": 8544,
      "affectionate": 8545,
      "journal": 8546,
      "bartender": 8547,
      "satellite": 8548,
      "infinity": 8549,
      "mystery": 8550,
      "article": 8551,
      "supreme": 8552,
      "consolation": 8553,
      "confirmed": 8554,
      "clinic": 8555,
      "receipt": 8556,
      "scotland": 8557,
      "advocate": 8558,
      "squeeze": 8559,
      "patterns": 8560,
      "diploma": 8561,
      "republicans": 8562,
      "jsut": 8563,
      "kansas": 8564,
      "nashville": 8565,
      "thowever": 8566,
      "thailand": 8567,
      "analyst": 8568,
      "tobacco": 8569,
      "resili": 8570,
      "sophomore": 8571,
      "alzheimers": 8572,
      "welding": 8573,
      "impromptu": 8574,
      "nearest": 8575,
      "worrisome": 8576,
      "ungodly": 8577,
      "safari": 8578,
      "pomegranate": 8579,
      "recluse": 8580,
      "passengers": 8581,
      "dinosaur": 8582,
      "attitudes": 8583,
      "1k": 8584,
      "38": 8585,
      "41": 8586,
      "48": 8587,
      "75": 8588,
      "aq": 8589,
      "ale": 8590,
      "awh": 8591,
      "aga": 8592,
      "agram": 8593,
      "bh": 8594,
      "bin": 8595,
      "bam": 8596,
      "batt": 8597,
      "bones": 8598,
      "bbly": 8599,
      "caked": 8600,
      "dv": 8601,
      "dill": 8602,
      "dna": 8603,
      "dents": 8604,
      "eer": 8605,
      "eight": 8606,
      "equal": 8607,
      "f40": 8608,
      "gou": 8609,
      "gid": 8610,
      "gans": 8611,
      "gps": 8612,
      "gloves": 8613,
      "gender": 8614,
      "hust": 8615,
      "hound": 8616,
      "hong": 8617,
      "hints": 8618,
      "iju": 8619,
      "itos": 8620,
      "jou": 8621,
      "jing": 8622,
      "ki": 8623,
      "kins": 8624,
      "lash": 8625,
      "lsat": 8626,
      "lasy": 8627,
      "mn": 8628,
      "nca": 8629,
      "n64": 8630,
      "og": 8631,
      "pg": 8632,
      "pow": 8633,
      "pir": 8634,
      "pens": 8635,
      "psat": 8636,
      "popt": 8637,
      "rus": 8638,
      "rite": 8639,
      "rling": 8640,
      "s9": 8641,
      "sd": 8642,
      "ske": 8643,
      "sly": 8644,
      "scal": 8645,
      "sane": 8646,
      "sacked": 8647,
      "sassy": 8648,
      "tam": 8649,
      "tant": 8650,
      "tasked": 8651,
      "uho": 8652,
      "ude": 8653,
      "ump": 8654,
      "wat": 8655,
      "xious": 8656,
      "ycle": 8657,
      "yak": 8658,
      "thsi": 8659,
      "thign": 8660,
      "inthe": 8661,
      "inte": 8662,
      "inconvenience": 8663,
      "instein": 8664,
      "era": 8665,
      "erer": 8666,
      "eric": 8667,
      "anas": 8668,
      "ancer": 8669,
      "toler": 8670,
      "aties": 8671,
      "resort": 8672,
      "reboot": 8673,
      "recession": 8674,
      "enab": 8675,
      "enitly": 8676,
      "ittle": 8677,
      "onde": 8678,
      "metri": 8679,
      "ornam": 8680,
      "llip": 8681,
      "ishaw": 8682,
      "arming": 8683,
      "aroo": 8684,
      "arian": 8685,
      "artific": 8686,
      "solit": 8687,
      "solar": 8688,
      "beth": 8689,
      "bever": 8690,
      "beloved": 8691,
      "becky": 8692,
      "leon": 8693,
      "ofr": 8694,
      "ofbut": 8695,
      "idal": 8696,
      "seam": 8697,
      "sees": 8698,
      "seper": 8699,
      "seiz": 8700,
      "sevice": 8701,
      "selection": 8702,
      "riend": 8703,
      "alarming": 8704,
      "chir": 8705,
      "chur": 8706,
      "chilly": 8707,
      "amster": 8708,
      "amole": 8709,
      "kest": 8710,
      "ketos": 8711,
      "wipe": 8712,
      "adam": 8713,
      "advis": 8714,
      "vernment": 8715,
      "outs": 8716,
      "outta": 8717,
      "outcomes": 8718,
      "outstanding": 8719,
      "feces": 8720,
      "roid": 8721,
      "roster": 8722,
      "tile": 8723,
      "doom": 8724,
      "novel": 8725,
      "nominated": 8726,
      "noxious": 8727,
      "endor": 8728,
      "yellow": 8729,
      "ghter": 8730,
      "cker": 8731,
      "peck": 8732,
      "peter": 8733,
      "abhor": 8734,
      "sual": 8735,
      "suspec": 8736,
      "mole": 8737,
      "iraq": 8738,
      "worm": 8739,
      "odor": 8740,
      "esh": 8741,
      "union": 8742,
      "unusually": 8743,
      "unloved": 8744,
      "untill": 8745,
      "unlock": 8746,
      "unpacking": 8747,
      "unbearable": 8748,
      "upse": 8749,
      "update": 8750,
      "shep": 8751,
      "workforce": 8752,
      "tray": 8753,
      "traged": 8754,
      "nig": 8755,
      "nicu": 8756,
      "extor": 8757,
      "arting": 8758,
      "accu": 8759,
      "accid": 8760,
      "acles": 8761,
      "acamole": 8762,
      "canyon": 8763,
      "plagi": 8764,
      "ssy": 8765,
      "tey": 8766,
      "teary": 8767,
      "teasing": 8768,
      "dete": 8769,
      "detention": 8770,
      "gray": 8771,
      "grid": 8772,
      "grrr": 8773,
      "savers": 8774,
      "sailed": 8775,
      "yearsold": 8776,
      "romance": 8777,
      "greta": 8778,
      "grease": 8779,
      "urinated": 8780,
      "yourselves": 8781,
      "perk": 8782,
      "permit": 8783,
[...]
